/**
  ******************************************************************************
  * @file    od_model_data_params.c
  * @author  AST Embedded Analytics Research Platform
  * @date    2025-12-04T13:35:01-0600
  * @brief   AI Tool Automatic Code Generator for Embedded NN computing
  ******************************************************************************
  * Copyright (c) 2025 STMicroelectronics.
  * All rights reserved.
  *
  * This software is licensed under terms that can be found in the LICENSE file
  * in the root directory of this software component.
  * If no LICENSE file comes with this software, it is provided AS-IS.
  ******************************************************************************
  */

#include "od_model_data_params.h"


/**  Activations Section  ****************************************************/
ai_handle g_od_model_activations_table[1 + 2] = {
  AI_HANDLE_PTR(AI_MAGIC_MARKER),
  AI_HANDLE_PTR(NULL),
  AI_HANDLE_PTR(AI_MAGIC_MARKER),
};




/**  Weights Section  ********************************************************/
AI_ALIGNED(32)
const ai_u64 s_od_model_weights_array_u64[21392] = {
  0xdb259bb62281003aU, 0x37de002495003ebfU, 0x2297c231d500U, 0x7f00283b00b8ce2fU,
  0x2c000051000050U, 0x5500ba0000d4002aU, 0xbd350000af0024c4U, 0x4b00e32623a31c00U,
  0x2ab23e3881002eb4U, 0xc236239f1924d340U, 0xe6e800000025U, 0xb600c3eb0081aeU,
  0x2b00003bee003cU, 0xd7e3b18100000000U, 0xe2b7ef00000000U, 0xebc1U,
  0x2e0000000000U, 0x4a00007f00cb4b00U, 0xa35f00b85100aaU, 0xbf6400cb0000004cU,
  0x6300U, 0x450000U, 0x400000U, 0x5300e67f3f3b5e00U,
  0xc8752ee55d0000U, 0x4800006b00002eU, 0x5500dc7f00003600U, 0x9c0000978f00U,
  0x9600cf00000000U, 0x8100U, 0xa600000000b5cc00U, 0x928400000000U,
  0x9881000000009fU, 0xe9540000000000U, 0xec2016000000d0U, 0xc00000a300U,
  0xe1dc8100009adb00U, 0x6e00000000abcfaaU, 0xc300007f31U, 0xadbd0000005e3c00U,
  0x2e00bcac00d7bf00U, 0x9aaa3500664f00U, 0x48007f40c672U, 0xd500de5300c700b9U,
  0x5e447f561317cbcbU, 0xe6f1e1e2000000U, 0xda00141ae000U, 0xa228c181d4c99ddeU,
  0x3e000032009700c0U, 0x711f0000da450000U, 0x6000003064300000U, 0xe7b700bc8b460000U,
  0xdf00dab25400b268U, 0x5d00da6d00bb7f00U, 0x9fa50000c67aU, 0x10d7500008536U,
  0xfffff2e50001cfd5U, 0xffff2521ffff237aU, 0x11e5500015a96U, 0x14070000e506U,
  0x16d50000197eU, 0x90bd000047d1U, 0x81c800a54a03bacaU, 0xf715f4e7d446cfe5U,
  0xc512ece40f7fbde9U, 0xc03cd8af05cdb46fU, 0xb7d2b54ca2012825U, 0xe6ebf7bbee194001U,
  0xa86743d470db8181U, 0xbc1cfdf97f319449U, 0xc37f7f43e733fab9U, 0x817f7fa4c21cd97fU,
  0xe6ea067f811278f3U, 0xf309e9350cccfcebU, 0xb70f10c724c7d6caU, 0xc6d3f47f2df0813cU,
  0xe64b0ef3c2d6238dU, 0xf5b5e8d3e57f81cdU, 0xf0e8d7e7c2e66b2cU, 0x1ad20362fb7d65f5U,
  0x2e0ffffc9d7U, 0x20b7000000b7U, 0xfffff311fffffd54U, 0x46feffffda53U,
  0xffff7e17ffff6d59U, 0xffffe1f1ffffc167U, 0x5a4000006a1U, 0x4679fffffad0U,
  0xda0000e0b100U, 0xb0810000000000U, 0xda8121007af2U, 0xc4e7d0e522U,
  0x453800374058dfU, 0x8dd1518100432c00U, 0x13000000f7U, 0x81100a000000U,
  0xe600001500cfc100U, 0xca45814bac00002aU, 0x38008f00003fc400U, 0x81abb3815bd400U,
  0x3200a90000000000U, 0x23007f0028550000U, 0xe614000000811100U, 0x102a00f30000f5U,
  0x60c00002a2aU, 0x9ddffffe894U, 0xe00000015d3U, 0x2630fffff2d3U,
  0x8185002b460000U, 0x81c0000000180031U, 0x75d9b17fd428U, 0x7f003a00c75cU,
  0x1e0000d88150001aU, 0xb930004600cc7fU, 0x7f00002d24e0301bU, 0x640081a2e22fbeU,
  0x25002d00007fU, 0x33cd00002a407fe1U, 0x7fe4d40010000000U, 0xd900002e7fe20024U,
  0x4c5900d581006700U, 0x7800f08100U, 0x7500007f009a003dU, 0x6f0032aad67f00cfU,
  0xd0813c0000000000U, 0xbd00db81be000000U, 0xe70f0000007f2aU, 0x81ad27001d3c0000U,
  0x8ec100af007f00d1U, 0x81004500e0000000U, 0xd381003a00ccd9U, 0x64000000a37fU,
  0x2000009c8169U, 0x7f70c1003cU, 0x3022008100c100U, 0x810010ee000e0000U,
  0xf0812100f1U, 0x710000009500767fU, 0x1100000000007f00U, 0x290000bb810000f1U,
  0x8100008800005300U, 0x2c00009c00550081U, 0xbf0041670000007fU, 0x38001e0000812dU,
  0xdb81007758000000U, 0xd1c112007f000000U, 0x5500002d0000007fU, 0x81000000007c0000U,
  0x810000007e0000U, 0xd4260081d10e3500U, 0x3e5d49004f00c37fU, 0x50001400c67fU,
  0xb5000000a7007fU, 0x7f5453bf00d500cfU, 0x7f000000d100e100U, 0x45000081000000U,
  0x77ffffc42cU, 0xfffffcfafffffd14U, 0x6050000119dU, 0xffffff0300000659U,
  0x1237ffffff32U, 0x9110000070fU, 0x14e0000003e1U, 0x466fffffdf1U,
  0x79f000000d4U, 0x2e1ffffff3aU, 0xbeffffeafdU, 0x367000007cfU,
  0x1b600000e98U, 0xcfdfffff9dbU, 0xffff8409ffffff3cU, 0xfffffe54fffffd17U,
  0xfffff9d4000000a7U, 0x113000002e7U, 0x9d600000dc7U, 0x86c00000685U,
  0x71cfffffff8U, 0x1aefffffeb2U, 0xffff889c000003e5U, 0xfffffcc5fffff5c9U,
  0xb7fce3f47017f5eU, 0xe7f07f81e8ef009dU, 0x7d1cd7f22822d4ecU, 0xc6109ab3c38a0734U,
  0x14fa573fae44d3caU, 0x7fc93027f0813f45U, 0xd03381eb390c634bU, 0x17f6ccd52f17a7fU,
  0x7c2edd81e07f92ccU, 0xce086fd842811de4U, 0xd773051b81e1d80dU, 0x3c1cda0081447f27U,
  0x21cbedde30e2e764U, 0xeff022b1e842e343U, 0x440fe309453cc681U, 0xcadd7fde06e6500bU,
  0x81340c02144b143aU, 0xbf9ffeb09fd0180dU, 0xca3ae61f0c0044ecU, 0xd60b0825ac3a529dU,
  0xe43f5b69da4728f3U, 0x9681048ac8a181f5U, 0x123d9b8da18181U, 0x644cf828cb9ed920U,
  0xd26558877fc757d2U, 0x7f6b940946f6520bU, 0xca7ffe0c0b50742dU, 0x81baa6812ce3f781U,
  0xe66354fca8ba8d76U, 0x20335400df81e57fU, 0x9f650c7f0ce8e9cdU, 0xd124ec7b5d379900U,
  0x1151d4d9214c6ab6U, 0xc6df34fe7fe4ecf3U, 0x47fdc33035df259U, 0xb0817f814821e677U,
  0xc4d75b4aba98f0faU, 0xd1d11a0a877f159eU, 0x81147f4117190488U, 0xaf8b5d8d5b600d0U,
  0xe1e581c3e58115a7U, 0x896203562fbabe35U, 0x9d8a3184e281c281U, 0x172df2b67f45dcdfU,
  0xbe1c516a09127fbbU, 0xec87b3dddeef6b31U, 0xd302b381ede2ed30U, 0x1d730d767beac4f8U,
  0x8108fff92da9efa0U, 0xd212dc8f0a128107U, 0x8d55f76481050e01U, 0x3f9a6251df23f26U,
  0x13735edad33f7121U, 0xf7924fe45d30216U, 0xffffe589fffffd55U, 0xffffef2effffef20U,
  0xfffff87f000001d1U, 0x4400ffffef0aU, 0xfffff6db00000e9eU, 0xffffe67effffdebbU,
  0xffffff3400000881U, 0xfffffe45ffffdfcaU, 0x5caeffffd8d9U, 0x913ffffb0adU,
  0x637fffffbb1U, 0xfffffa58ffffc926U, 0xffffdca800000bd5U, 0x1008000036f4U,
  0x16d00004299U, 0x2ffc000034c1U, 0x13f400001861U, 0x7afe00000c9dU,
  0xfffff2da00000ec0U, 0x2762ffffbc83U, 0xed3ffffe0a0U, 0xfffffce5ffffe1baU,
  0xffffffe9ffffecddU, 0x290fffffc7dU, 0x3b4c00c000f2a000U, 0x1b3ad50000005aU,
  0x7f35001f2612U, 0x1800f0e786000000U, 0xdd1d000000b0U, 0xb2d2c000008613U,
  0xd700be00e8000eU, 0x3a005a5500440000U, 0x63002f1556430000U, 0x3f00000000000000U,
  0x4b00007f0000U, 0x1800000000000000U, 0x244e001100000bU, 0xe9c500006400U,
  0x110081000035c4f2U, 0xc50000d0000000U, 0x2b513500000000U, 0xe6f5000051002940U,
  0xf4007f1c00ed0016U, 0x3a00740000bd0000U, 0x18003be1a30014U, 0xed8a0000002eU,
  0xcd00ae009f44U, 0x5b0014003f003400U, 0x1d6dea2000U, 0x1d0050000000002dU,
  0x116100U, 0xef9c56001d00U, 0x2100e581d3ac61U, 0x44001ac500000025U,
  0xb5abe10000000000U, 0x5d0d0074004400dbU, 0xac0000315100U, 0xadf3f400000000U,
  0x7b0000aa00001e00U, 0xdc4b29001e008100U, 0xcc4d22200000621aU, 0x5900ed00000034U,
  0x16004b00c500U, 0xc25c0000aee1b281U, 0x453c00009c0000U, 0x6fe9009e006238U,
  0xa300000000000000U, 0x3100ee00U, 0xcf0000f100U, 0xe0d3f20000a00000U,
  0x0U, 0x7f68000000002600U, 0xc50000000000de00U, 0xdee4c38a279f0000U,
  0x36d23a00006e001bU, 0xd3ddf10000b10000U, 0xd900007b2f5d000eU, 0x5e93d8a300000081U,
  0x6c00db0000000019U, 0xba00d29152002700U, 0x7f3b0000005be300U, 0x71002164cc2a0000U,
  0x24764fca2f00e7U, 0x86a6d1c1cf00d100U, 0xd7000000f30000U, 0x7fc919264c004b00U,
  0xb660d700e6370000U, 0xac00001f481c00U, 0xeaae17b7bd09b917U, 0xe30000490000d600U,
  0x3e8156cd00003600U, 0xc8a600e300c30000U, 0x34b591b53019a700U, 0xc1cb000000bfe000U,
  0xd9ee155a00000000U, 0x3ad900ab760050efU, 0x2d000eb71aU, 0xd600bac300000000U,
  0x2d003d00360010U, 0x3f49194c4e2e009fU, 0xe200000000464fU, 0x8100d6e2c400003aU,
  0xe11d1d77b900e6dfU, 0xbd0000005700d6e8U, 0x1ac5000000ea0000U, 0x9a0000b7008be8d3U,
  0x7f00d61f43004200U, 0x5700f2000000babeU, 0x4d00000000f1541cU, 0x8a4dbb67d837b300U,
  0xa600bd0000bcca12U, 0x3100ef7d006e00c7U, 0x3d81cf250031cdU, 0xd4000027c4002b27U,
  0xa7007a5b3e10d100U, 0xbdbb00007f290000U, 0x7100001e000000U, 0xcd0010a60000d248U,
  0xb65600ae000000U, 0x1f00d733002200U, 0xffffbf4200002a18U, 0x53000015acU,
  0x181cffffbfcfU, 0x25d70000049dU, 0xffffe79900003963U, 0x4f95fffff2e5U,
  0x2788ffffbb01U, 0xfffff5d7ffffe222U, 0x2a00e8217fU, 0xd410f500e00023U,
  0x1a1c1c0000d700d8U, 0xd40081eeU, 0xa30000a8000081U, 0x42002842003f2a41U,
  0xe5da8100cfU, 0xe6000000af00002fU, 0x54000020000000U, 0x3a0f7f0034e3f034U,
  0xb8ce4700e500U, 0x7f9aba00U, 0x120000007fU, 0xc2e400000000e623U,
  0x5b1900000000edd1U, 0xda3381d800c400U, 0x257f0000c9220000U, 0xbe00000000000000U,
  0xf3230000c7000000U, 0xd272fed007feaU, 0xb31b0000bfa3U, 0x8100d8df00bf009cU,
  0x7f0000c8008fU, 0x9700220000002cU, 0xc900f0000000c27fU, 0x230041008d00201cU,
  0x898a0000001800cfU, 0xa800813a19e817e4U, 0x360000007f00ecc4U, 0x2cc11dd9d7009a00U,
  0x5c7f002000ed002fU, 0xf0320000bee40024U, 0x0U, 0xb4000000858d7f49U,
  0x8100d900e500b500U, 0xb77500002f004e42U, 0x2b001d810000U, 0xc9004c00d3cf0000U,
  0x2f81007500002f52U, 0x414a0000U, 0xc9164000bf81b5U, 0x9100U,
  0xcda00003e4cb1bfU, 0x3f56004ebd8100U, 0xcee4d20000e0b981U, 0x1f000031e9000000U,
  0xb7000000U, 0x7f0000f700000000U, 0x1800002d4b00d43aU, 0xc5e200bd198e8100U,
  0x260000812e500074U, 0x53002cccbd000054U, 0xd61600be00239817U, 0x814e001a00000000U,
  0xcae5002ca8004300U, 0xdf00771d4f7f00U, 0xa20000008100d8ecU, 0xd44000487a00U,
  0xdba7007f001d00beU, 0x2ae0b1000063d800U, 0x818f3c0030aa3900U, 0xba230000c245c1b5U,
  0x6900e300U, 0x378116e88800U, 0x1a290017b7bd81U, 0x33000000b50000a6U,
  0x5b0000005230acU, 0x8c7f000011U, 0x3b0044000b003300U, 0x812100d700c300U,
  0x170000772d00deU, 0x191681c6U, 0x100000002f81U, 0x1f00007be10000U,
  0x81002619b10000U, 0x40d6d02800d9U, 0xc2d6811d75000091U, 0xea0000009500U,
  0xa71e1400U, 0x1900003a1c477f00U, 0xc300009b007f0000U, 0xd800cd004fce0000U,
  0x5081d300000012U, 0xa22418c00027U, 0xde0000d2d6000000U, 0x950000d3d8000081U,
  0x1600000000007fU, 0xe1007fd1cd001960U, 0x810000a200b00000U, 0xbf00dc74008c4f00U,
  0x6f0000d83d00d027U, 0x820000c6e1997fU, 0x8d81e00000cd0000U, 0x1d002c00f1e800U,
  0xb4d100bdc7d50000U, 0x8100102500000000U, 0x2cbe232a34d00000U, 0xca00270081d7U,
  0x510000ce000046U, 0xa878000081c07c00U, 0xe22a1d00000081U, 0x120000dfU,
  0x8e7f0000000000U, 0xb89d000000d9U, 0x41004fb7007fde00U, 0x3b00639800000000U,
  0x3d0000750000005eU, 0x4db57b0081008f75U, 0x8ac60096e8c60000U, 0x927481783d003a00U,
  0x9eeec3d200811900U, 0x9727007e00000000U, 0x3900530081U, 0x4500b700e8520000U,
  0x2be57f00000036U, 0x16d40000b9000000U, 0x15000d0081U, 0xd4000045004be000U,
  0x81002600110000U, 0xb1e318400000U, 0x2e00008400008100U, 0x50b264009545U,
  0x1300007d00007b00U, 0x81f5db0030d200U, 0xa0450000490048U, 0x3c8100945b362400U,
  0x2200006800000000U, 0x810000234fb219U, 0xb87d81ce00009900U, 0xbd390040d2b20000U,
  0xaa0010bf8116cfU, 0xe10000590000U, 0xcd81U, 0x740000273b000000U,
  0x8100cccb1c00a700U, 0xc953dd0000002000U, 0x9000000000d00000U, 0x51810022000000U,
  0xc82e1e000000f4U, 0xad3900007f0000U, 0xe80010b17f0021U, 0x430000dc67e64000U,
  0x290000000000e800U, 0x63007f0000000000U, 0xeae7b90000U, 0x9500001681d30000U,
  0xcc0029e000000000U, 0xc26a0000eda67f00U, 0x3b1113dd81U, 0xee3d0000cd38U,
  0xb78100cb0000da4bU, 0xdd09c91aU, 0x2b00c8c759b05bU, 0x8148479e00931d00U,
  0xdac0d100b7000000U, 0xd263ba7f756fU, 0x28001c7f00e01000U, 0x5700e0db0000f100U,
  0x2e0000003e005bU, 0xcd3900c032810000U, 0xe0000094007f0000U, 0xdc0a00ca00000000U,
  0x360000360ec40027U, 0x7f006de2001a0000U, 0x8bb5ca75de0044U, 0x35b000db6a81d000U,
  0xc90000ddd9a10031U, 0x814100f3cd000000U, 0x36000000ec0020abU, 0x2ae00027007fd900U,
  0xc6810000e500a184U, 0x243400122320daU, 0xb100bcf100U, 0x815f002800e70000U,
  0x2b7f00e51e1e00c1U, 0x38b7d800d4e7bcU, 0xc1ede1b2006bU, 0xdeea008100001eU,
  0x5b0000810000ba00U, 0x38004000adccU, 0xe400810000bf001fU, 0x25e0000ecb000000U,
  0x2581f82e0000c2U, 0xe7000027d10000U, 0x7f39001826000000U, 0x380020c9e300cd0fU,
  0x5e00b857782800a7U, 0x7fa1c2000048cc00U, 0x42000000000000U, 0x1500cdc88100U,
  0x407fba0021U, 0xe000000000c800U, 0xfffff675fffff8f5U, 0x5df00000565U,
  0xfffffe3500002339U, 0x8d2fffffd3bU, 0xfffffe8bfffffcfdU, 0x21c000004baU,
  0xffffb7e7fffe9ad2U, 0xffff8105fffffa95U, 0xffffffe7ffffeed9U, 0xfffffeaaffffffd5U,
  0xbb4000006a6U, 0xfffffbab0000045bU, 0x5020000027aU, 0x7ddfffff641U,
  0x1c9bffffb57aU, 0x174fffffb41U, 0xc7fffef28aU, 0x2ec00000133U,
  0xfffff4db00000856U, 0x30fffff05aU, 0x1a7000004edU, 0xffffeca0fffff980U,
  0x812000017bdU, 0x721000002deU, 0xfffff584ffff6fe1U, 0xfffffc2300000a89U,
  0xfffffcbcfffffb80U, 0xffff8f32ffff8bcaU, 0xfffffbc2000005dcU, 0x2f70000015eU,
  0xcc1fffff368U, 0x7a700001a4cU, 0x44a2fffff320U, 0x19100000969U,
  0x27afffffad8U, 0xfffff998000006a8U, 0xfffffcc0000019b7U, 0xa07ffffea54U,
  0x2fd0000062cU, 0x74000001ccU, 0x585000001fbU, 0xd98fffffe7bU,
  0x311fff7f5d9U, 0x4300000c24U, 0xcc5ffff68acU, 0xfffffa1effffe571U,
  0xfffffeb700000512U, 0xfffffd1efffffbd2U, 0x2e44f709b60da8dcU, 0x7981e9ae7b7ffef5U,
  0x9ececac302b324e4U, 0xcf7f137ff92df2b8U, 0xa8abf5cc5b903a7fU, 0x81ffc1b0d57f0b20U,
  0xef7f2edb3d16204cU, 0xc77f8181817fcee3U, 0xb9817ff7f3c9967fU, 0x28e777fc03f4bb43U,
  0x36de0e9eb381ba33U, 0x187ffb01eabcbb7fU, 0x16c64027abb7ad7fU, 0x1909d667c00597c3U,
  0x826020e1f5b4053aU, 0x1f3d7f06de377f81U, 0xaa77ff932bce438U, 0xd4ffc0194e127f48U,
  0x2d4df6b102f1f348U, 0x9c14edde04ce81cfU, 0xf6307b2f1c6aa8f4U, 0xa405dde7fa23052U,
  0x896e1ef7d4ac56ccU, 0x1464331633a9c907U, 0xafb67f7d81c2d30eU, 0xe8237fb7d409fcbfU,
  0x7fad2481df1c810aU, 0x7d0a00efb8e5dbc3U, 0x8d81ebe2ca9883fbU, 0xc7b6f34ab7eee8adU,
  0x304036c635812cdcU, 0xa0cddedc5359c81U, 0x456300f81020cd2U, 0x321632154b08f6efU,
  0xb37fa198dfa858d8U, 0x50621f93fe2e200U, 0xa0333b8df681c8ecU, 0x7fa41f8136f0657fU,
  0xf2a09124da82aa81U, 0xca26eae704f3f2c2U, 0xb86af24b95cc2703U, 0xf004a2bcb1fcf20bU,
  0xfc0e7fe5fb317f4dU, 0x105fafc0d548b80cU, 0xa3a6d209322cc0e0U, 0x3c47fe9b545f425U,
  0x33c8f16eed049542U, 0x7fab7fd92ca1e8e0U, 0x45a21c371dcc13fbU, 0xf767f466c36f7febU,
  0xc17f81d2f87f0ecdU, 0x81f9101b0544efc3U, 0x1f56e3fed07a378eU, 0xce40451e34070910U,
  0xf7f90b25403d442fU, 0x3eef23d2f1ae411cU, 0x8d12b985ef2f8107U, 0x16174eab216bee12U,
  0x43d77f3006c7e017U, 0x7cd2dfcdcbd674aU, 0x16f6cdf12ee17fd1U, 0x148c13dfb4273615U,
  0x73031fb7ffe500e8U, 0x210531d9812cfcddU, 0x811a1c2ab65e7f79U, 0xdd581365801be27U,
  0x7f36ff0b3be7427fU, 0xfadab8ccd42d54c9U, 0xcc57ae00f0fc4016U, 0x200503d4f6d40ae8U,
  0x7ff7ab9c044e60fdU, 0x38a618f8e8817f12U, 0xc78105beadcf07a8U, 0x5ab80c587f11a758U,
  0xe298c4ba81389fc0U, 0xa71381cdd87f35e9U, 0xae5311ee7fb904c5U, 0x5a6ac5811501ca81U,
  0xcfcb02fd40adddf6U, 0x8100f965f0fe4904U, 0xd6029e7f8de704b7U, 0xf781387fbf32e8b4U,
  0xcaeb897f3213d57fU, 0x24bad1c2486e0cd4U, 0xa721f9893ff4f1bcU, 0x61d61fe74f0ef614U,
  0xf447d5f4d0ba0406U, 0x4e02a3bf05616bf6U, 0xf104f781369d0951U, 0x5956e6f842ebc99aU,
  0xe3f3267f7fd925feU, 0xfeb6216c200f1413U, 0x62c5872a16811ce9U, 0xfbda302cab197f81U,
  0xd3ea1d1d7f00eed4U, 0x923b4b6816e1309U, 0x81077d7fbdf8245cU, 0x45810cef952e2805U,
  0x2ac8bae9af57ecc6U, 0xddf9fbfac350f8fdU, 0x9debe1fb03811f75U, 0xe8813c47810c063bU,
  0x63e70c33cf141de8U, 0x47014f48c60dd7ecU, 0x7f5294da18eb0d10U, 0x7fc3572fff7f1ab6U,
  0xb7931f97fe1f7fecU, 0x11cade8165b9cdebU, 0xfffffd94fffff320U, 0xffffbf5a0000356aU,
  0xffffd539fffff55fU, 0x390f00000464U, 0xfffffd36fffff411U, 0xfffffc10ffff4d18U,
  0xffffff78ffffffb0U, 0xffffffa600002f01U, 0x1e79ffffdf00U, 0xfffff8d6ffffe7ebU,
  0x136d00003ee2U, 0xfffff98700000ed5U, 0xffffdcfdfffff9bcU, 0xfffff77dffffe137U,
  0xfffff915fffffe95U, 0xffffe65effffed67U, 0xfffff0f4ffffff56U, 0xffffddf200005119U,
  0xfffff9870000789cU, 0x55a600000067U, 0x147c0000107dU, 0xfffffe68fffff8d0U,
  0x4238fffff55fU, 0x1728ffffef81U, 0xffffd02dffffff7bU, 0xffffdfe000001d1dU,
  0xffffdde1fffff594U, 0xffffff7dffffff4eU, 0x1e5700001f42U, 0x3a0effffe7cfU,
  0x4daaffffe3dfU, 0xfffffd9dfffff2e5U, 0x2c47fffffc62U, 0x151700000801U,
  0x1cd1ffffe7e9U, 0xdebfffffe41U, 0xfffff10300000070U, 0xc8efffff7ceU,
  0xffff5e3c00000730U, 0xffffd219ffffb2c9U, 0xffffee97ffffef75U, 0xfffffd8400002ecbU,
  0x3adfffffec2U, 0x243800000849U, 0x3d5ffffff8eU, 0xfffff49c0000016aU,
  0xffff45640000387bU, 0xffffdf420000009fU, 0x2c5b000000000053U, 0x1c2f003a000b2e00U,
  0xc40014db00704a00U, 0x38d8000c00debb00U, 0x2700cddd00002cU, 0x9100f60050U,
  0xde10e0c3810000U, 0xeb00cac8000000a7U, 0x3100001a2aac27U, 0xa8b0c1000000U,
  0xa6daf6d3a500d8U, 0x5adf000054U, 0xe2100000001a0000U, 0x8e2000000f40000U,
  0xee000700b700U, 0xdd000000f1200000U, 0xce1300e800f8U, 0x2ff01e20d4U,
  0x900001b1400edU, 0x4000161a00250000U, 0xf10000e4000e44U, 0xf70000180b00U,
  0x7ff1000000d000U, 0xde00d200001800U, 0xc6f62b1dcfU, 0xdae1caf32300U,
  0xe300320000004400U, 0xd700f40000bb00U, 0x1b00002000U, 0xe500ad000000d1U,
  0x2f0000bbde00U, 0x9622d14cb59700c3U, 0xa4185b0000U, 0x8500c20000d00000U,
  0x41b981005c17d700U, 0x1e4b0072c1000000U, 0x49efbe00ea00002dU, 0x540014ca0000dcU,
  0x2d390000151700U, 0xc3000000ed000eU, 0xc2b00081dd004f00U, 0xc4ca800000039U,
  0xd1dae1e2000000f3U, 0xd40043c400e834e4U, 0x11de0000000000U, 0x1900ccf0f200cd00U,
  0x15e2e2e6dad60000U, 0xbf540b5ee800c9f6U, 0xa00e848U, 0x251ce7494e000000U,
  0x1326000900e300U, 0xbfbbda0c007d00U, 0xda82f3e6001900U, 0xb5003e0025e8c400U,
  0xdb00cfe200002bb5U, 0xd66c0029005b17U, 0xdd811d00ca00c7U, 0xe62d000043ccc7U,
  0x43001fc43ee900U, 0xa300f000e3000e00U, 0x27422d001c0000U, 0xec00004400U,
  0x8100000800c900U, 0x1fe900001100000fU, 0x3000002e6bc0f4U, 0xee293bb56a00U,
  0x282222653de80000U, 0x5f1a2b0000bd1e00U, 0x1f00U, 0xea26a8cb5cd700U,
  0xe500da18002c00e0U, 0xdf00470032U, 0x3016000ed11800U, 0x220c0000002cddU,
  0xc61b00c600000000U, 0x4dca000000b6e511U, 0x11001443b23600edU, 0x4c000000f1812c00U,
  0xdace00d8f0000012U, 0xf100d6ab00000ebfU, 0xb52300001500a4U, 0xb2002fd3cb0000d1U,
  0x48b100ec0090e800U, 0xf52c372e0000U, 0x3d170040e0c900d3U, 0xf33400f10d0000c9U,
  0xf000000009211U, 0x811c00db2f24U, 0x11af3b00f3U, 0x5b00000a13f620U,
  0xe8b300000000U, 0x2bc900003910003dU, 0xd80000499b910000U, 0x17f821c9d20c0000U,
  0x461a00003e0000U, 0xc46001eU, 0x1e000000U, 0xd20d23e3000017bcU,
  0x4bd21a09410000U, 0xcce93800e00000d2U, 0xc31800362010c400U, 0xe1110017000f0000U,
  0xe7e9c9ce0060d500U, 0x32e80000000000U, 0x7f000000790000U, 0xc50000000000U,
  0x8ad61e0000b60000U, 0x3a0000000000e1U, 0xde00ee000adb0000U, 0x35b6e6d82f090000U,
  0xec00000a007f0aU, 0xe43a191300e500U, 0x2fa54b22d5000dU, 0x20d4b5e60b00002bU,
  0x1c5c1700f6f2edU, 0xd400a83cc9000000U, 0xb9ac43002200U, 0xe290000006c00U,
  0xce080050c324U, 0x2adf0000e0e200f5U, 0xaa00590d0000b6U, 0xaa2011aaca00c000U,
  0x1b5e00170800d900U, 0x2100ebeb00000000U, 0xd40000e700000cU, 0x47623beaa91600f4U,
  0xe0d3d03e000000U, 0x7312e300d10000U, 0xd200c45800f4U, 0x35b7df001bU,
  0x52005d000052U, 0xca000026ead68100U, 0xe2dceb27bce0U, 0xdaf3f0c7c9edc000U,
  0x1d00004108000000U, 0xe63900000024bef2U, 0xc0f0003a2bc30000U, 0x21ed0000e800a2cfU,
  0x1b000000002e0000U, 0x51e0818b00U, 0xd000000000U, 0xd311c02641000000U,
  0xcc000b29000000U, 0xe6440e0024e60000U, 0xe600d60000c700U, 0xe5f70000000000U,
  0x5b00000e000000U, 0xdc0016003ae1U, 0x4600000000b600f7U, 0xca1e00000f00ae00U,
  0xdfd800000016dcb0U, 0x58000000000000U, 0x470000e5d800d7U, 0xab003e00000000dfU,
  0x2e007f0000210039U, 0x9d00e50000e900U, 0x98001c0011e4U, 0xd2250000000010b8U,
  0xc9c80000001fd300U, 0xe517001c00a400f0U, 0xb9001d00004f9800U, 0x2300000000d20000U,
  0xe4e6d6c200d9003fU, 0xa70000U, 0xb53c003700320032U, 0x81d1000000U,
  0x9300a7dd00e400c3U, 0x4bf0190031000dU, 0xdcde4aec133c0000U, 0xca000000000000U,
  0x631d140000df3100U, 0x297f0c000bef000eU, 0x6a26d2b62400U, 0x1defcb0000004636U,
  0x23001c22003c0000U, 0xdced0000000027U, 0xa01a0000000000U, 0x91f0000d6ea00U,
  0x540031e51d004200U, 0x24d200004a00001aU, 0x2300e10000000000U, 0xec34dd3100f2e500U,
  0x98d000004f002bU, 0xd2abebf1000000f5U, 0x8d00000000000000U, 0xc600d64000e400U,
  0xbd9000000cd0000U, 0xd7f428cdbf003f00U, 0xd90000000c0000U, 0xdf0000003e0000U,
  0x3300e14b198100U, 0x13000041d5003b08U, 0xffffef5300005d9dU, 0x1a9500001f6eU,
  0xffffe04efffff240U, 0xffffeb3d00000c1bU, 0xcdefffff57fU, 0x3a7dffffdcc9U,
  0x536ffffff142U, 0xad5ffffb580U, 0x6100cc26U, 0xc98100c73300007aU,
  0x7a008138000000a1U, 0xb85c56d066U, 0x664b0028U, 0x2a00994b810000U,
  0xe929af49000000U, 0xc30000bd007fbbd7U, 0xcc007f342a004500U, 0xc7df0000bb00U,
  0x7f6e00002bd000U, 0xc2000030bc004d1fU, 0x2c0000d600000d00U, 0xf47fbc00d50000U,
  0xd6007a000055adU, 0x7f9ed60000c9c800U, 0xbf007f00U, 0xd30000edU,
  0x5c0000002300002bU, 0xde7a0000c0bc7fU, 0xb7387fd229570000U, 0x3c4000c300c900U,
  0xea00c9ce32150000U, 0xdb24007fdee23cU, 0x290000000081U, 0x3200ed00U,
  0x6b00bb0000c37b2eU, 0xd3408100000000U, 0x522f005f0000U, 0x940000314f81U,
  0x1c92007f680019a5U, 0xc30000009400U, 0xad1900e20000U, 0xe1007f0000c20060U,
  0x67001e00c5810014U, 0xc70000d6a00000U, 0xbe007f23000000U, 0x5f8b00000036003bU,
  0xdf00ccd3000000a9U, 0xc92a813b79000000U, 0xce0000b2c6cb00c7U, 0xa47f000000002a00U,
  0x35260e0000ed00dbU, 0x23000000f08100U, 0x1333000022660000U, 0x811ee6cfe8U,
  0xc300009e547f0000U, 0x740000007c250000U, 0xcb009a8100000000U, 0x325c1a006c0000deU,
  0xa90000dd00ca0000U, 0xac0000d200267fU, 0x6600d2da7f0000U, 0x165fda1b3b000000U,
  0xc3000081b400bbbcU, 0x309524004f2f00U, 0xb7U, 0x7f00e700U,
  0xb300544100004000U, 0xb717920000001f81U, 0x6a46347f4d460000U, 0x26000000370000d5U,
  0xd0000c0U, 0x6d3300c700008100U, 0x7f00002c00b73500U, 0x3198200000000000U,
  0x5ca1007f6dda0000U, 0x4c007b000000001bU, 0xd90000e4c26500U, 0xed004881002d00U,
  0xed00002f00000000U, 0x3e00813aba000098U, 0xb20000d3bac681U, 0x5be80000U,
  0xb9008d000019b3abU, 0xbb1abb007f3f0000U, 0x348d002f81005dU, 0xd9d63eb4e5b76aU,
  0xd900997a441d007fU, 0x2daee400cc00c1U, 0xadb518000027e434U, 0xad00007f002a6eU,
  0x4f54c300da0000U, 0xe3000081000000U, 0x62ca001b4b4e26dfU, 0xa7bb8100009b00U,
  0xd416e481de1a0033U, 0x56003000332700U, 0x2dbf4f0030e24600U, 0xbd000000e681a9U,
  0x81002800bd00U, 0x39da2b4d4a0000U, 0x7f00b800009442U, 0xe1006200000000e4U,
  0x7f3300ca003eU, 0x9b5f0085000083U, 0x270018U, 0x812b002c27d5U,
  0xcdef009600U, 0xce7f000000a40000U, 0x554000554900dd23U, 0x1e540000bc81d3U,
  0xb70051ad0033b7U, 0xbc00003b00b67f00U, 0x3700260027U, 0x7fce0000002f1200U,
  0x17000000000e0000U, 0xb27fec23dbeb22b4U, 0x272e008100cfU, 0x25be00U,
  0xdd304be2d500U, 0xb8000028007fe700U, 0xca003697be7f0000U, 0xc500cd0035003300U,
  0x1530b1beccU, 0x2900001f4c8100U, 0x15000000168100U, 0xaa6130000000U,
  0x3000a900ed000081U, 0xc2000032b300U, 0x2781c9233dbe00U, 0x43000049000000U,
  0x9d00001c2a4d002aU, 0xd4007fb2008dU, 0x99af00cc001c5d00U, 0xb68118000000U,
  0xc6002f49181a002cU, 0xdd7fc10000c30000U, 0x7f5f000000002feaU, 0x4a0075ee009b0000U,
  0x2300da1d7fe3b6U, 0x6c1b0000U, 0x7fd6cd00eadd00U, 0xbc0000efc7d7e900U,
  0xa44997d90000aa7fU, 0x936aa71f00c27f00U, 0x7f00c9006e00aab3U, 0x67000071a334U,
  0x37000081U, 0x479300653b4a0000U, 0x4a685200005181U, 0x5fdc29930000aae2U,
  0xd4007f61002a003fU, 0x5200c9b38355ccbeU, 0xca007b3b000000U, 0x1b00008100U,
  0x192400000091007fU, 0x3000cbc42c00U, 0xd3813d3d0031U, 0x2def1ec768520000U,
  0x500000003d0000U, 0x81ad0000U, 0x57bd006dU, 0x4c0037008162e8b6U,
  0xba8c0000dea70000U, 0x8100000000cabed5U, 0x5500a200U, 0x597f000000U,
  0x4252000054000026U, 0x7f00c365ee9100U, 0xd30000ca615500U, 0xbe9700007a7f00U,
  0x317f0038U, 0x3e00c000bf21b9U, 0xda00ddcbd600c300U, 0xbc7f002662000000U,
  0x32887f0000b92900U, 0x22ce0000c100U, 0xa05500007c3dcf00U, 0x7800e300cb751a81U,
  0x207faa9f00000000U, 0x31bd1e00b92600U, 0xbaccd41700c4e000U, 0xed2b007f0052df00U,
  0xeda7003900004881U, 0x599c00650000aaU, 0xa200003cd79b0031U, 0x36e64f00816500U,
  0x89008c20000060U, 0xbd3900db008100U, 0x31008b0000e100a1U, 0x810000008425U,
  0x9d7f89004f000000U, 0xc600bb00b10000U, 0xe6c4000000d31dU, 0x9f00810000350000U,
  0x11e281d954c0U, 0xc33b000000e60000U, 0x7bb3007f68b50000U, 0x92000000000000U,
  0x7ff0b30000004dU, 0xda001de1d9000000U, 0x3245000000caU, 0xfffff68700001a3cU,
  0x1daffffffe6U, 0xfffffdd9fffff120U, 0x140fffffca8U, 0xfffffbe1fffffd30U,
  0x73b00000cfcU, 0xfffff0f5000008cdU, 0x43efffffb40U, 0xfffffa3200001438U,
  0x295ffffffcbU, 0xfffffba0000001e4U, 0x1befffff5c2U, 0xfffff950000059b6U,
  0x1e89000002c3U, 0x188500000617U, 0x96cfffffb58U, 0xffffff54fffffed3U,
  0xfffffe1800000928U, 0x334fffff679U, 0xfffff4c0fffff7d6U, 0xfffff970000001d9U,
  0x1a5fffffc96U, 0xffff46b50000044bU, 0x30d0000056cU, 0x51bfffffaa4U,
  0xe4400000a34U, 0xfffff97600000171U, 0xffffff740000012dU, 0xfffffb72fffffc77U,
  0xfffffbb7ffff56d2U, 0xfffffddb000000f2U, 0xfffff47dfffff94cU, 0x55cfffffb55U,
  0xffff2e6dffffeb15U, 0xfffff2d8fffff967U, 0xfffffc9000000b69U, 0xffffeecbfffffebdU,
  0xde4b1fffff65bU, 0x13e00000a4cU, 0x58efffff985U, 0xffffedf400001160U,
  0xffff4a5efffffd00U, 0x8dfffff057U, 0x1909fffffd8dU, 0xfffffff9fffffb34U,
  0xfffffacf00000095U, 0xffff868affff143aU, 0xe737b328111873a3U, 0xaeb7c803cbf9207fU,
  0xf1223e1f72c0881U, 0xad7f7feb81d4f8f3U, 0x3a20ece5812127feU, 0xd6c7ef2681d28100U,
  0x4671267ff673072cU, 0x3b1643920b06f61cU, 0xbabc182a01fbf620U, 0x5b4adf541183e0fU,
  0x1b05df7f7700cee1U, 0xe749cd9465c943f1U, 0x7f1bea7faf42c7e0U, 0x91b0397feb082a7dU,
  0xd8e0c7f927df37c9U, 0xbb7f0ebec581fa4fU, 0xf81ad27fd5f41a40U, 0xbeeaa2a749819b7fU,
  0x660d817cd038aefaU, 0x677f579bc9b47f1cU, 0xaa7f3ec3a8fa0d5aU, 0x11802bdcd7245edU,
  0x88ff293bafedb981U, 0x19fcbbbdcbe0c7f3U, 0x317f552f1929c39cU, 0x105b7f16e706ac4cU,
  0xd4b3ead0ecadcca2U, 0x40aeda95dee70b45U, 0xbb73812d01b48104U, 0x8181d38120ebe647U,
  0xeeb611f7cfbfd6f8U, 0x4035bc1781b9ff14U, 0x8118ddf8f0dd5961U, 0xab2a4844810bab6dU,
  0xc0eaf6f09bae37baU, 0xfbdbd172d0d4d9d8U, 0xff3200fa4505d9eeU, 0x816bb0a681c950bfU,
  0xe32e60da6022e2c9U, 0x5b2406dd211eed81U, 0x7f1332c7ee7f24dfU, 0xf31481b92bf2ca73U,
  0x36bae055207f812aU, 0x5e1449aca3149baeU, 0x88ea345e2438819dU, 0x4ae181db2fb047e7U,
  0x957f7f757f1320ebU, 0x7f81b3f06c8e81a0U, 0x11530aeb1fca2804U, 0xb2830ff8a483a1efU,
  0xe14c02b07f81babaU, 0xeff2f6571d2022c5U, 0x544b5fe8b459f833U, 0x9e5fcc546737dd3fU,
  0x7f41931273ed3a7fU, 0x14f27fc0f90c19c4U, 0xa8e2fe14f908a87fU, 0x81cee6e066a84393U,
  0x81ef013e47d88117U, 0x2f89a4d5d2b1c804U, 0x1bc07fbed681a75cU, 0xe79d5fa1ca0f81dcU,
  0x8125ce9b61d181fcU, 0xf33d07f32297fcdU, 0x797ffc0cfac1097fU, 0xc50137483b231267U,
  0xd93105d4ec819ceaU, 0x7f0f20d7d27fe2edU, 0x9d297f9aa76aba25U, 0x138861ce718181eeU,
  0x90f3e84e4d81dac2U, 0x43c3905f8aecf381U, 0xbb1be7f1f72830f6U, 0xb83104e3ce776532U,
  0xfc0581d4d96368beU, 0x311aa9293bf1f995U, 0xfceb201003cb34eeU, 0x19fb02d26b081b71U,
  0x747facdb2168fd01U, 0xae1c1e139f40e1f7U, 0x8705ad7f967ff6aaU, 0x9bdf056bcca5ef3eU,
  0xfa11e83dd104b607U, 0x40eee891c608e923U, 0xeca2e11d285fd3adU, 0x86812bd9a76c15edU,
  0x9c7f0c13fafeefaaU, 0x814bbf06c22818d5U, 0x793772e6a8f9e7daU, 0x4ae7ca3d1efed92bU,
  0x59d1fded7fc0b4e3U, 0xc3153681f4c36881U, 0xb5f8c145811ecd9cU, 0xdcced67fa1955f7fU,
  0xfb06f70ac861e203U, 0x54c6ed817fac45adU, 0xbcb139197f437f81U, 0xcb5927fdf97f83ffU,
  0xafecea81f9f11dcfU, 0xb6a81f1efb140769U, 0xc9365afdf22c0dddU, 0x4e49f75843344b4cU,
  0x14aa21854e93d3fdU, 0x8f302919e09db7e3U, 0xe7e3bd09f53391d5U, 0xb47f47aafbf5bb12U,
  0xbbe80949304803d1U, 0x2ed5810d2d8175f7U, 0xfffffa190000516bU, 0xfffff346ffffe7cbU,
  0x1cdafffff06fU, 0x99cfffff701U, 0x36d2ffffd943U, 0x5eaefffff3c5U,
  0xfffff6220000134bU, 0x20cf000014e4U, 0x1e0500002fb5U, 0xffffe2d000001361U,
  0x7670000648cU, 0x2b5cfffff6cfU, 0xffffee2000001f19U, 0xffff8ce000000d35U,
  0x156ffffdf80U, 0x17d6ffffd244U, 0xfffffe53fffff808U, 0x51dfffffeed7U,
  0xfffff415ffffee04U, 0xffffe9dbfffff72cU, 0x12e500000638U, 0xffffec8e00001124U,
  0x9cf0ffffecf6U, 0xfc00000d19U, 0x39dcfffff174U, 0xfffffccb00000834U,
  0x2c99ffffdd13U, 0xfffff437ffffd17bU, 0xfffff37e000040c6U, 0x268bfffff734U,
  0xffffee92000000d7U, 0xfffffbbdffffcc70U, 0x1565fffffb52U, 0x6fe1ffffe992U,
  0xfffffee6fffff851U, 0xfffff883fffff5c2U, 0xfffff4c6ffffe739U, 0xfffffcce0000662aU,
  0x435fffff4fcU, 0x32ca00000c3cU, 0x2f6100002875U, 0xfffffd64000009d9U,
  0xffffffb3fffffa3fU, 0x7132fffffc72U, 0xdf00000308cU, 0xffffe51200003f57U,
  0x3faf00004d5bU, 0x29fffffe23U, 0xe50000e612ced8U, 0x2d0036d5ad00b400U,
  0xb647d66800810085U, 0xdbd55800002c00d8U, 0x36110000c200b000U, 0x250031d0003500U,
  0xae0058c3d0d50000U, 0x309900d53341c725U, 0x1200000071e600eaU, 0xd8e2ef3347cfed44U,
  0xbd000000260000U, 0xf26e6330006300U, 0xcd004300730024U, 0x320000U,
  0x3d00df000000d5U, 0xdb3b004aca217f00U, 0x1100001a00aa00U, 0x98002b00U,
  0x352d00ab41000000U, 0xa600cf0000454aU, 0x64ee4800000000U, 0xda00133400208724U,
  0xdb000edc4a486533U, 0xd200e1003c0000d6U, 0x35b8d74d000000U, 0x2dd5ef00e1315aeeU,
  0xb816e8bd00000000U, 0xa2dd004500009e00U, 0xee1000bc0000dcU, 0x300000670000e8U,
  0x81001612cb000000U, 0x310000e7003abd00U, 0x11c800b127000000U, 0xcfe4de00009500e5U,
  0xe399002100290000U, 0xdc000000d544211dU, 0x7700665800000000U, 0x90000000922c3b00U,
  0x6f0000d33700ebU, 0x65000000274900U, 0x3570ad0000002e00U, 0x6d0000acU,
  0xea00927f0000U, 0x300000U, 0x31000000250066U, 0xea733b00512eU,
  0xd100000000000000U, 0x4300cf2850000000U, 0x1800c584000000U, 0x3adf22002aa22300U,
  0xd7dbb60000b3601eU, 0x1900001700de00U, 0xdb0000a4ab3800caU, 0x341600a6e38b4b27U,
  0xe2d6f2652d004c00U, 0x2c4500b500U, 0xedc123002e0000b0U, 0x278a00ad00000000U,
  0x2700ef4e81ad0000U, 0xe4007d00ba76ba00U, 0x3600002cd6U, 0xc46800b9dc000000U,
  0x4ae21d0000dfU, 0x2300130000c8U, 0x8c7f0000005b4eU, 0x92d747d900c829U,
  0x6000285f0000U, 0x282d00c100000000U, 0x20d80000ad0000U, 0x1100c8e60000U,
  0xf24f1f0000U, 0xc800003500e300d2U, 0x4620000000dd2600U, 0x973f613a000016U,
  0xa4cf232bed29U, 0xcb00300000U, 0x1e324597000038U, 0xf400d0332400dce0U,
  0x1b00641300007dU, 0x2a0000f2005ccc00U, 0xf16215000000001dU, 0xe8000f000000df00U,
  0xb400367f48000023U, 0xf011000000e11aecU, 0xf000000047c50000U, 0x2b0000ba00d2e200U,
  0xee0000000000U, 0xb40000100000d100U, 0xa7000000509ae4e5U, 0x1e00000022f13016U,
  0xd4d1b600dd1300U, 0xcb0000000000U, 0x550000e1U, 0xf10000a60081e5U,
  0x16f0e00000000000U, 0x1400001100ed0034U, 0x58b50019b500c0U, 0x3f25000000b100U,
  0xb30000ec00aa00U, 0xdfU, 0x1f00352bU, 0xf0c9f36011e5b2e1U,
  0xcf0000U, 0xe09c1b0026007fU, 0x3d0000c9c6e765U, 0xde00f22cc00000deU,
  0x3221003c00eb3420U, 0xe0f20000009e0000U, 0xb2300000c2000055U, 0x670000004000e800U,
  0x6d00d23d00203e00U, 0xa60024e0c10033U, 0x7ebc00003cc500U, 0x34004b37003f52d0U,
  0xb5d200c100eb0000U, 0x540000504742002bU, 0x12810d3000410000U, 0x3d320027002f0000U,
  0xdfa2e400dfc2002fU, 0x4a3425U, 0xcb00dd2400dc002eU, 0x20cd00d34f40cbd4U,
  0x54008121f4002924U, 0xe3da00b20000U, 0xa1ae1c000000U, 0x23df00ca4ea5U,
  0x9d0000dc0000U, 0xda0000003600U, 0xcd204a5784U, 0x2a000000c046ad00U,
  0xab003300U, 0xc8c6005eU, 0xc9435327U, 0x7f005f00U,
  0x653700000039002eU, 0xbe460000d44aU, 0x68d900210000e2d1U, 0x2800U,
  0x3d3bbc407100d400U, 0x20002d21d9003200U, 0xf200145edc3e6000U, 0x13000010007b0000U,
  0xdb370042bd00cd00U, 0x1f0000000000db00U, 0xbba3001b5ddb4fU, 0xe800002f20003eU,
  0x34001bef00b52fU, 0xda000022b9004bU, 0x623f0000d14b3c00U, 0xb00001b006000a3U,
  0xce00001f00ab0000U, 0x30002be9d0000017U, 0x12001925c70000deU, 0x8839ed3000177f32U,
  0xa3002b300000aa5cU, 0x360000f4360000b8U, 0x2d1c0f002827U, 0xe9ef0038007a0000U,
  0x27ebc374000019U, 0xcf00d35e0c5c0000U, 0x247d00280000U, 0x450000681a0000U,
  0x1731e700000fcf18U, 0x191f4200cc0028d3U, 0x56cae5dc00U, 0x310000001bU,
  0xcf0023172a7f002cU, 0x2c00bcc910c100eaU, 0xab2e000056ea4a00U, 0x53abca00000000U,
  0xd2000000000000U, 0x4e224c0000d0004fU, 0xabbbdddb001ae1U, 0xcb69000043004aU,
  0xd3002b00007f3700U, 0x2f00000000a400U, 0xd6ad000024005518U, 0x28000d00af4c268eU,
  0x1500d8d90086eda7U, 0x220000eb00U, 0xde0000e2b4d3c6U, 0x3a2b1edf34001e00U,
  0x6b00002c0014U, 0xdb810000eb00U, 0xf4e2000000000000U, 0x1400d700000028U,
  0x24efbb3d42004400U, 0xb3efd0105f005000U, 0xf20000000020U, 0x35001e0000000000U,
  0xf3e145b2U, 0xc90000ac004600e5U, 0xffffbba400003314U, 0xffffbcc500005a9fU,
  0x12a5ffffe710U, 0x2705ffffc01fU, 0xffff4c8a00004a74U, 0xffff0a9300000449U,
  0xffffb566ffffdad8U, 0xffffdf47ffffcc54U, 0x2c00d20097c40000U, 0xec003e005f7f00U,
  0x49007fc500U, 0xcb00d4dec3000000U, 0xb2006600db00U, 0x7f4742004fb7U,
  0x3a0022007f1f0000U, 0x2c0014daea00ea2fU, 0x1e0000a40081U, 0x132c00001900e400U,
  0x1b370000007fU, 0x92d60000U, 0x4881180000c76200U, 0x17a98cd30047U,
  0xc22600cd0000U, 0x2a000090002f0081U, 0x55000006488118U, 0x120000000c00002eU,
  0xb5000000000000dfU, 0xee0000e4af81e9U, 0x48000000007f9172U, 0xdfe2000000420000U,
  0xe600b600383a0022U, 0xdf009e00d70081U, 0x63U, 0xca000000007f0000U,
  0x3f00be0000U, 0x7800008100f70000U, 0x81c2a5345700cb00U, 0xd40000005300d6U,
  0x1100202eaad800e5U, 0x7f63a18f000000cdU, 0xca00618100b7b9U, 0x1b00f100286b1a21U,
  0xe9c430000081acU, 0xcaU, 0x8100f9002e00000fU, 0xe7ec002b14001b17U,
  0x7fd50020be49be00U, 0x26008dbcc415cc00U, 0x9f00a4309a008ae2U, 0x46e93662000081U,
  0x8200d0000000U, 0x81f143007e0042U, 0x811400005300f700U, 0x3300229b0000U,
  0x700d57f00160000U, 0x3a00a7d62c2a1f00U, 0x3a002a99397fdad4U, 0x5535d5e3000c15U,
  0x3a002ed394de0088U, 0xbe4981005b9a43U, 0x3800006e811dcd00U, 0x2eedc800f04d0000U,
  0x51eee07f8968c500U, 0x9c0000430000U, 0x2c00a40000aa81U, 0x120000bc00c30000U,
  0xde83002b0000ebU, 0xca006a000f7fe3U, 0x8100dc0097c9U, 0x390000U,
  0xa9002cc900812b00U, 0x3cdfdc00U, 0xca000000138134a0U, 0x5700000000001100U,
  0xcf0000007f0076U, 0x8d17d4b2009900U, 0xe60022cf009f5100U, 0xb9151cbd0d81ac00U,
  0x2ce30000007f0000U, 0x90c300c0e5U, 0xdd00a77f59620000U, 0xbd4c003b35003fU,
  0x140000000000e300U, 0x81efc49f00U, 0xe200816600e6008cU, 0x4136322b1b002dU,
  0x0U, 0x1e00008200697fU, 0x1e6800193c9081U, 0xe2b5e800a127U,
  0x5c000000000081U, 0x1a00da005a006400U, 0x4b00000000e00000U, 0xbc0000c5ccf8c47fU,
  0xec06e67fd700c000U, 0x2b00d500000000f6U, 0xae6700dc7fb855b6U, 0xb66200632ad024U,
  0x260000420055b400U, 0x9fea0074007f0064U, 0x64c900006a0000U, 0x7f7437U,
  0xe72b000000U, 0xc07f000000f900U, 0xf30000b600a43aedU, 0xdd00000000007fU,
  0x7fc04d00008a00U, 0x20750000U, 0xef0081003100U, 0x0U,
  0x200026000064007fU, 0xb5000000000000U, 0xe7000d0000ce0000U, 0x300010811f0022c3U,
  0x81ad160000a30089U, 0x280000000000cc00U, 0x303800d37f00e700U, 0x8d0090c400a075U,
  0x102b47001fec0000U, 0xed31efdbc69b7fU, 0x81e4000000U, 0x1e00000070U,
  0x8111005500U, 0xc5000000ab00f200U, 0x2fd70e77bc000000U, 0x193000d820001481U,
  0x31914800c2e3ab00U, 0x417f9c00b45a0000U, 0xf80f56a1000000U, 0x492bed81d6c4e2b7U,
  0x847f008e41d6e2b0U, 0xdf4a004bc42700U, 0xc800548100703300U, 0xcd00001f70a9ded3U,
  0x140000347fde00U, 0xd43e00b4dce4004aU, 0xca00d700000081eaU, 0xf057000098b700U,
  0xbf7f000000ddU, 0xe60011310000U, 0x987f000000368a00U, 0x2000e90000000000U,
  0xd50000b3a0d200U, 0x7fdd006f005800U, 0x6c7f00d1007e0000U, 0xe800a9b0000045U,
  0xed82d9a78b9c0085U, 0x2400001b7f00U, 0xc70093d340ad0000U, 0xe38125670000001fU,
  0x7f0000d900c1U, 0xe0000b1cc00e83dU, 0xf5e357U, 0x8100470000920000U,
  0x532a8e00000033U, 0xb247f1008581a700U, 0x411500ec7fe000U, 0x9a4d3b0000c744U,
  0x20007f00da2b000cU, 0x3100dfdcda00U, 0x132f7c00007f0077U, 0xe900000000U,
  0x90000000008e00acU, 0xd0d32b0042008100U, 0x9c002e7f000066U, 0xa78700ab00U,
  0x25d500008100e7U, 0x39c100eb0000001bU, 0x214500008110eca8U, 0xe00c800e90055U,
  0x7f003700afU, 0xde00006900b3U, 0x8a00320081009fU, 0x6500000031006600U,
  0x5000001b003200U, 0xea0049ce0000007fU, 0x5c0000813100d6U, 0xd83027001800U,
  0xe800c50000000eU, 0x8100451000000000U, 0x257f0000260000ccU, 0x5c003ae50047b02fU,
  0x2bde00002400U, 0x24007f00cd58a2U, 0x0U, 0x8100d40054U,
  0xa2e000b9U, 0x81e5294b1b330000U, 0x816d2300dd001f00U, 0xcd3a563fd60000U,
  0xba0000b6cc3c0000U, 0xef7fc79bbcb6U, 0x28814e0000512268U, 0xe40000aed9002e22U,
  0xa1469100e91aa300U, 0x7f00004500U, 0xa000490081004596U, 0x620000f10000b800U,
  0x5d000041004d007dU, 0x838100a600U, 0xffffff94ffffa96cU, 0xfffffb0c000014b9U,
  0x6450000015aU, 0x1102000002aaU, 0xfffffda2ffffffd3U, 0xfffffe6afffff91bU,
  0xfffffc1b0000006dU, 0xfffff871ffff42e7U, 0xad40000a85aU, 0x8aefffff59eU,
  0x5b000000418U, 0x130400000901U, 0x561fffffb8dU, 0xfffff9f20000005fU,
  0xffffe810ffffe390U, 0xfffffb5dfffffccfU, 0x22c00000104U, 0x3b700000f05U,
  0x9bffffe18cU, 0xfffff86a00000d65U, 0xffff846500000301U, 0x7d00000443U,
  0x52ed0000012dU, 0x52a00000325U, 0xfffff1c900000390U, 0x7ca00000c01U,
  0x8900000001U, 0xffffeff7ffffe72bU, 0xffffff9efffffa75U, 0xffff9319ffffa2bbU,
  0xfffed5bafffffc95U, 0xffff84c40000025dU, 0xc5000000c6U, 0x90600000257U,
  0xacfffff41dU, 0x8300000205U, 0x1f1f000006ecU, 0xffffff29fffcdce8U,
  0xfffff7b1fffffadeU, 0xfffffbe400000f96U, 0x4c2ffbd8cfeU, 0x215fffffde4U,
  0x8fffffdd7U, 0xfffff825fffa80f6U, 0x26a8fffffcefU, 0xfffff2d700000377U,
  0x131ffff96beU, 0xffffed0affffff47U, 0x8d9b281c3b82bd4U, 0x1f2d935e517daab6U,
  0x51c1afa6c14a22c9U, 0x1cd625eaf9cc042aU, 0x110718a6054350eaU, 0x81113481d629f70dU,
  0x14a0320997e67f13U, 0x3d36bb2cea7d81d9U, 0x2c9db1d8f2a9a655U, 0x30ca9e2c393caf15U,
  0x73f67fb488987ffaU, 0x810f9202dd81d2e9U, 0xf759e6e3c4c713eaU, 0x41b1c22a18298181U,
  0xdbca6ad7cc7f0e1fU, 0x1dfa06147f7fd657U, 0x64d076c8194fc58U, 0xa047fdd4efe07f2dU,
  0x3bcbb5e8c952f4eaU, 0xfc7feacce41fd1b0U, 0x83a59fbe9eedd124U, 0xce11b9fc7f7fbdc3U,
  0x8d9a0bb7a466a9ffU, 0x8db0ca85d89217a0U, 0xaf5f5c9c9e431d9U, 0xcaa15c1a3258b2c6U,
  0x191045d9db50b6cbU, 0xdc391e811fd9694aU, 0xfca7cbc3eee9a79fU, 0xb160c45d2f2e35d6U,
  0x2e26e946dd8e3881U, 0x1a6bcf83ca906dffU, 0x7fd0eecc8b8a1705U, 0xd9c319f83b07ea9cU,
  0x3d92dcd8149887fU, 0xe81fe31d11becd3U, 0x59c081b9355cf504U, 0x15ca8106fe7f30f0U,
  0x810c85d512196176U, 0xbd811f65fe44937fU, 0xb1609384b948383eU, 0xca553ae88181d4ebU,
  0x5481fdd3066a5633U, 0x50ef0d5b947c037fU, 0x84824245ffdb814aU, 0x6366ba81f02f07bfU,
  0xf67f0ec6eda8b83cU, 0x519981fdd4fc5281U, 0xf65117cd0c32e95aU, 0x7ff144c881416e0cU,
  0xd80253582533fa03U, 0x29b71c230f487f5bU, 0xc90cc5e22b1b8137U, 0x2a7d0d2ebe641bfcU,
  0x819aa1e82bd9140aU, 0x4c1e011b2f76d947U, 0x7d89fd5f07011de3U, 0xcdd7540c2860250eU,
  0x6eec0c7f35bbdf07U, 0xe9ae4894da2905aeU, 0xf824c0d9d87fb00dU, 0x37f5f2d303a320cU,
  0x47330281497d81beU, 0xfa8bd9050d3fe862U, 0xc3819fba58f0a75bU, 0xd64fc46ec4bd0659U,
  0x450fc581f92034d0U, 0x7f2d7f81aa8127b3U, 0xb896d67f7f1a90d1U, 0x2981dd45192013dfU,
  0x812ef5e6055fc0cbU, 0x17d6d41d7f2e81acU, 0x7f21ce457f3581d3U, 0xcd40a681afe32617U,
  0x9bb49088814d287fU, 0x1d237fce2cb83d62U, 0x7f1aef39b081e347U, 0xe73f36a2c941f87fU,
  0xbafd7fb818540c27U, 0xe35c3f629262eed1U, 0x635a1eb6d67f44b5U, 0x7fedebdaa0d1b481U,
  0x7931788f4e38df3U, 0xaa3eb2f9ed225dd9U, 0x5eb1ecc1d95d139U, 0x3ed48d2fadc1f20U,
  0xbc8161d4a1130900U, 0x7fe92a8fc881f6edU, 0xb1e81453ad9f1eaU, 0x3b7f8169a5ace936U,
  0x712a1c08181db3aU, 0xb34c4e3d92ccf40eU, 0x9fea0834bc362ab7U, 0x99f542cad4b3dc16U,
  0xc3270b32338128f1U, 0xa9d3f186cf40e013U, 0x137f920c79b3df7fU, 0xfcdce1ee64cc393eU,
  0x3ad97f04e81eaca5U, 0xca03c4d9f6c5b43cU, 0xf5a8c17f1acfc47fU, 0x62fd1268e19b892U,
  0xe04030ff45181cb3U, 0xfb1d19c081b74b18U, 0xf0817f0ce26ae581U, 0x14a9813cf4c9819cU,
  0xe2a81810e3e30623U, 0xe7e13481d4639c20U, 0x1734ffffff91U, 0xffffea89fffff377U,
  0x3fdd00003ec7U, 0xffffe197ffffe49dU, 0xffffeb58000026b6U, 0xffffecd8ffffd574U,
  0xfffff295ffffec25U, 0xffffe20fffffff00U, 0x1361fffffe56U, 0x192fffffdd8dU,
  0xffffd6e100002fe9U, 0x115200000d95U, 0xffffefb6ffffbf07U, 0xfffff595fffff329U,
  0xfffff754fffff7e6U, 0xffffebef00002496U, 0x31acffffcfb9U, 0xfffffda600002bccU,
  0xffffec22fffff53aU, 0xfffff7ae000018d7U, 0xffffffc3ffffc43fU, 0x251efffff0a1U,
  0xfffff768ffffcfc5U, 0x1ccaffff2875U, 0xffffe0eb00000531U, 0x11e400000538U,
  0xffff7898ffffd4d9U, 0xfffff9ca00000b64U, 0xffffea2dfffff3fbU, 0xd3ffffff8eU,
  0xffffffe10000006aU, 0xfffffefdffffb133U, 0x239600003c01U, 0x126effffe815U,
  0xfffff4f8ffffe1e3U, 0xb73ffffcc57U, 0x25e800001edaU, 0xffffe8eafffffdf3U,
  0xfffff937fffffb0eU, 0xfffff90e000008a8U, 0xe99ffffffb8U, 0x43e4ffffecacU,
  0xffffce250000292cU, 0x6640000000cU, 0x1b04000016d4U, 0xffffff33ffffe7b9U,
  0x32f500000101U, 0x1006000027a2U, 0xbb0000737f2fe000U, 0xf000d6000035beU,
  0xcf4c00ac06c30033U, 0x42dc437ad600U, 0x1b000041252b0000U, 0xe2ee39b7U,
  0xb2480000b30000d9U, 0xe20000d5e4e900ddU, 0x3600e4001ee129U, 0xa8f3dd0000eb0000U,
  0xe800e6be001f0000U, 0xd42f9af30033d318U, 0x244b140000U, 0xdf37cb41bbU,
  0xcd00bd1b0000dee8U, 0x16001e1c000000U, 0xe217000000e800U, 0x430000c30000ee00U,
  0xf100003522U, 0xa00098113d10000U, 0xf809002a001fd8U, 0xed000000001d00U,
  0x15000011000018U, 0x938dbcf23U, 0xef00000000002e10U, 0x5bc6000000U,
  0x43c100000000383aU, 0xe0017d300U, 0x37000000500000U, 0xd600000000001900U,
  0xc3000000U, 0x85d442ca007400U, 0xcc170016460000U, 0xd1000000090000U,
  0x3ee3cd0000000000U, 0xe900b20081000000U, 0x1852e800cbdd00U, 0x2700dbec3524U,
  0x9000030d900f0bbU, 0x60000002d00d900U, 0xb400000e00000900U, 0x7012000700000000U,
  0xba000800bff30000U, 0xf5ef16f7000000d1U, 0xde0013000000beecU, 0x8117233aU,
  0x38e10000U, 0x12fa18002200U, 0x1a0dac3c0000U, 0xf41d0000210000U,
  0x2f17cb00de5632U, 0x1cbb4b003809ddcbU, 0x2730ef0000303c00U, 0x9c0000c3U,
  0x170000ef2300eeU, 0xe800147fef364900U, 0xca2700008e00dc00U, 0xb40e0e1c001c2b00U,
  0x2000e900f4d800e7U, 0xe70825150000U, 0xef00ed0000ec0000U, 0xd600000000d70000U,
  0xf200c9b70024U, 0xb00ebce4400U, 0x42ecf20faec5adU, 0x27001ec3d87f0600U,
  0xeb000037200012U, 0xb8de0000eee329U, 0x7707000000cfedc2U, 0x370017fab000U,
  0x17f6ede60000d700U, 0xe000ddf5bddb45e4U, 0x73f3c1000021cc1eU, 0xdf009600e5000000U,
  0x373bcade001b15U, 0x81c1ee0000b230e2U, 0x10000f00cde1c600U, 0x3600c5b9c8471934U,
  0x9000000c8c4b3d3U, 0xe1cf111215dab3U, 0x50e56239de00e4b9U, 0xc8U,
  0xc200ce52004600f6U, 0xd91f1f000000db00U, 0x250000003b00dfU, 0x7500420000000000U,
  0x995e00786a0000U, 0x5d105e00001d393aU, 0x5a00000054U, 0xb600000047a30000U,
  0x21000000b7U, 0x7f6b75ef326a00U, 0x650000U, 0x25000000ec0000U,
  0xeb28cba83700f5U, 0x489aa6ef29000000U, 0x720000cd000000f0U, 0x500000000000002fU,
  0x27490000000000cfU, 0xacc00c9b000000U, 0xb3f600af00d81bU, 0x1edede0000d1503eU,
  0x77000000d7e300U, 0x12150000004c00dfU, 0xead3e344430000a2U, 0xdff30000U,
  0xe82c00007f000025U, 0xb20000a200e000U, 0xeee0002f3d0019efU, 0x65f2f0000000323dU,
  0x9400c84c3a00beb4U, 0x57002a0027004fU, 0xd7810052eb000036U, 0x350f00241be51200U,
  0xf5cebb0033U, 0x29f417ef0000U, 0xdd006e23796a21U, 0xe3c200ea00003200U,
  0xf1a00312b00da08U, 0x1b0044080041d100U, 0xde630000000000U, 0x5af83a000017b500U,
  0xe2000017102b1000U, 0xf0052000022004cU, 0x81283133U, 0xef000000a7f009U,
  0xab7c00f40000d7d0U, 0x2500002600a4U, 0xe2000000a14e0017U, 0xae00200000004b22U,
  0xe2ed001a00003800U, 0x5c000011c923f200U, 0xd30000c400001cU, 0x150a11003200002bU,
  0x4400007f40U, 0x32e20000bc003500U, 0x48000000840000U, 0x2ed200U,
  0x24ea00e9230f0023U, 0x3c180020f1d300U, 0x26ddb90000U, 0x4ed9353ee90a0000U,
  0x5300be0000U, 0x1b45004a00U, 0x2e00f70000000019U, 0x130000003a0000U,
  0xdd00000000000000U, 0xe700b21b00c41410U, 0xb90000b700d4e0faU, 0x350000000000ec06U,
  0xc400002f00003bU, 0x90018ea2600d300U, 0x25006c00300000d4U, 0x55b300001e000000U,
  0xdf1b004f1e00000bU, 0x4a117f000000U, 0xdb00ea0038000000U, 0xe34a003a0000U,
  0xf80000002630c5cfU, 0x1eed1200000d55U, 0xe20d00ecd0c810U, 0xd351f5007fU,
  0x3400000007001a00U, 0x16e5a530d1c12aU, 0x37173f0027e9U, 0xf3002000c8d3U,
  0xe300000024580022U, 0x1100d6b947U, 0xef0000e7cfcd0000U, 0x15f72e0052da0000U,
  0xc4da471ed11700U, 0xdd000000001ed5U, 0xbf3f00001dd2f9ecU, 0x1b1800000000c6U,
  0xe60730340057U, 0xea00060000000053U, 0xcd0000150000U, 0x7f002d2cbeed00f2U,
  0xf2e500d4U, 0x2abbe6f6cb005100U, 0x1b00d000ea00e400U, 0x42000be0000000c5U,
  0xe3003e0000ea00U, 0x29000000db004000U, 0xcb2d9fd198U, 0xe2001400d82500d3U,
  0x42ba00000000007fU, 0x38170000000000U, 0x3900009aU, 0x541b302aee0000aeU,
  0x132200d0d5e1ddU, 0xe200004f0000b2U, 0xe83000026e2U, 0xfffff897ffffedb8U,
  0x20c8ffffe8b2U, 0xfffff1c000001898U, 0xffffc098000001cbU, 0xffffbe25ffffce85U,
  0xfffffb1cffffd585U, 0x3b27ffffe9a0U, 0xc92a00007f00db00U, 0x51009600ccU,
  0x81002586000041U, 0x4617d3b61c0000beU, 0xb3cf0000a6000000U, 0xd1007f000000c1U,
  0x5fb33800b3cb002dU, 0xa8c9813b003dU, 0xed52000052001500U, 0x81d4009f00U,
  0xc900000000000000U, 0xcf0000be81e800U, 0xd80000d10000U, 0x514d7f2fU,
  0x7f63c500005100U, 0x28ba8100U, 0x248145b14500U, 0xa000001546ec00eeU,
  0x8155000000U, 0x8b004a0000000000U, 0x814427005bf10d00U, 0x114300002130U,
  0x7fd365d428U, 0xd20000007649a6U, 0xc55ddb00490026e6U, 0xd47f1e00c61714U,
  0xd57fdf00340e3600U, 0x21003a471b000000U, 0x4b3800007e3200U, 0x7f000092d4ceU,
  0xce00eadd00430000U, 0x81000f0000000000U, 0xca0053810000U, 0xcd00000000004645U,
  0x81c8000000U, 0x5300b800b264U, 0x1724e13339002600U, 0xe9811c2b00380093U,
  0xcd7f000000000000U, 0x36d6000047000000U, 0x2a0067bcbf8100U, 0x20af000000b4d7U,
  0x9d0000002c3100U, 0x64000000aa0e81U, 0x240060e200f20017U, 0xcccd007fU,
  0x815200d600b6U, 0x5e00006a0050b8U, 0xbc0000006181d0beU, 0x413100b126U,
  0xb200f681U, 0x3827000000f20013U, 0x46e8004b004b00U, 0xe2810058d3000044U,
  0x7f00000f4e0000U, 0xda1e330000d100U, 0x51a3003500e900eeU, 0x6a008100260000U,
  0xaf00004500U, 0x7d000081b000U, 0x9b00001e1200f500U, 0xbf1a7f292f00U,
  0x42cb7fc400aecdU, 0xbde800000058001dU, 0x3bc80000c8e2c000U, 0xdc7fbce8da3d4453U,
  0x4c00000000ed0016U, 0x818f3b3d2eU, 0x20da7f00e626U, 0x92181c0000d000ceU,
  0x1f002233000000U, 0xb00ee0018001d81U, 0xc60052001c357fU, 0xaed3b400c600U,
  0x6adbd143ad490000U, 0x8100c847001bU, 0xba0000007f000000U, 0xf800000000U,
  0x7001433cbe600e2U, 0x7f0f00001e0e1307U, 0x960000d6000000ddU, 0x2f48007ff5db004fU,
  0xf13d00e1ed000000U, 0x4900007f29e200f0U, 0xa60000007f001aU, 0xa90000U,
  0x60000000b400U, 0xc70000a0288100U, 0x810000cb00000000U, 0xca67006d39ac40d4U,
  0xdebd00003047e500U, 0x2b7f000000d00091U, 0xe30000f5ca000000U, 0x7f38000023U,
  0x1500717f0000U, 0xe73d0000a8c400U, 0x1d9a0000007fbc00U, 0x2200bcf6a400U,
  0xb946004a00000000U, 0x7f3714ec00U, 0x39000070007f24U, 0x4e008dae0000U,
  0xccab006dbb7f00a4U, 0xd52f0000003f0000U, 0x8100c3003ccf00c5U, 0xd600140a000000U,
  0xca00c40000590056U, 0xdb81000000007a00U, 0xea8db9001d1b661bU, 0xe024007f5a2eceU,
  0xc681d13300002e00U, 0xcf26002a441a00caU, 0x7f16002b000000U, 0x47202500dd61U,
  0x760000000000edU, 0xe7008a008166U, 0x7fef0056d72eb6U, 0x15b13c0045192a3eU,
  0xac0000b000007f00U, 0x9cec007500be00c2U, 0x32c800000000U, 0xaf0000008135e600U,
  0x11b800000011d4U, 0x43db007f00007841U, 0x2e00a74200008100U, 0xb1003f006d2eU,
  0x7f000023330000U, 0xe3000000U, 0xb7e900810000c1U, 0x16e20000372f00U,
  0xea4ce3002e003de0U, 0xc6267f00000000U, 0xb652000081a143U, 0x5800cd00003ea5U,
  0xc8ae7faa0000U, 0xd400e7450093e900U, 0x3a00ca4700000000U, 0x1d811dd8a7d7a3b3U,
  0x2100007fU, 0xc000002500002c00U, 0x2900002d00000000U, 0xae0000497f00U,
  0x64006beed7cb0000U, 0x2d00000081df9f2eU, 0xe4b27f006700U, 0x9800232600000000U,
  0xbb5e00000000U, 0xd833ad00007f0000U, 0xccdd00e100322673U, 0x812d00002b002800U,
  0xbb51000000007700U, 0x92007f0049880000U, 0xde3643002200e300U, 0x2900a80000819d00U,
  0x43a81c4a0000f31eU, 0x798b81d200d7abU, 0xd4c60000c000d140U, 0x8132ad5c00004300U,
  0x7f00f33600d400U, 0x1db3b71dU, 0xb6002c00000000U, 0x7f0000d72ed6cbd2U,
  0x79000037000000U, 0x81d81f2d00000056U, 0x3664003b00148184U, 0x750000000000c229U,
  0xe70036000000d1b3U, 0x187f6800c300U, 0xccb627003464U, 0xd6000081000079U,
  0x9d000000ab317fU, 0x51cbc5c4003d38U, 0x373c003aU, 0x2200009681deU,
  0x2100007fdb4b0000U, 0xd8d000042be00U, 0xd80017df0035c9U, 0xef167f000040U,
  0xc2900c17ff200U, 0xc22e102ef300e6c2U, 0xc6000d00000000U, 0xe77fcaf400ed32c5U,
  0x7200e6c400000041U, 0xa08b00e781000000U, 0x1abd00d1df1cb900U, 0x5b8100b9000000U,
  0x2700e4757fca00U, 0x8b131500b341006fU, 0xe35d00008100c5U, 0x25d800b32310b43bU,
  0xce7fa50000d11c00U, 0x5d00000000U, 0xfffffe40fffff675U, 0xfffffece00000bb9U,
  0xfffffbba00000946U, 0x55efffff77cU, 0x65fffff23bfU, 0xfffff861ffff5a7bU,
  0x3abffff03c2U, 0x2f2000000fbU, 0x570fffe93c7U, 0xffffe7bbffff29f7U,
  0xffffffd000001b4dU, 0xf57fffff812U, 0xfffff8cd00001831U, 0xffffff90fffff956U,
  0xffffe015000005f7U, 0xfffff93afffff9e7U, 0x16bfffe75d8U, 0xfffff89f00009741U,
  0xfffffe000000053dU, 0xfffff768ffffffd7U, 0xfffff0030000008dU, 0x112000000beU,
  0x189fffff610U, 0xfffff0abffffff0fU, 0xfffff973fffffe2cU, 0xfffffb6afffff2e1U,
  0xfffff21bfffffe21U, 0xffff0b00ffff7f83U, 0x38e8fffffbbaU, 0x255bffff0ab2U,
  0x15dfffffe67U, 0xffffff9d000003adU, 0xd7cfffff087U, 0xfffed2f7fff3c891U,
  0xb46fffff6beU, 0xfffda80800000232U, 0x2407fffffbe6U, 0xfffffa2800000e96U,
  0xffffd907fffffd3dU, 0xa0500000ac5U, 0x254c0001442bU, 0xfffffb29ffffee5dU,
  0x39c00000646U, 0x8ac0000108eU, 0xffffa55a00000448U, 0xfffffd4b00000230U,
  0xffff6c52fffff525U, 0xd3fffffe32U, 0x8118a37aee7ff5aeU, 0x7fae81bca1e73460U,
  0xb5383b717fad81c9U, 0xd8eda481de81d1aaU, 0x60681f87ffec626U, 0x3ee1c97faecd11f1U,
  0x7feb1313dec4b9d1U, 0xdf32ab7fa7af81dbU, 0x1f3869271ff0eafcU, 0x38dfd90883e10781U,
  0x4db1fd18f10581c5U, 0xb511f5c77ff37ee1U, 0xcdc49a24e600b9cfU, 0x37ad8ebc81cc480eU,
  0x7f9f1b7f47505ccfU, 0x634781ebfcabf4bfU, 0x985cfe600d21f84cU, 0x258deff0b10d852bU,
  0x7eb7f7f2a02c2edU, 0xf87fd71a81b9f8cdU, 0xf22b23407fdcee28U, 0x53b7f2c199bb3ec2U,
  0xa6dbc97f81e07bf1U, 0xa623cd0201bbfff5U, 0xecd1ab6cb6ac4981U, 0x42abecca06c16ef2U,
  0x1b7fb1090c0adbc4U, 0x4a7f35b5bedb0923U, 0x59ffc0ece47fd408U, 0x2518f0ddcafa5ce7U,
  0x63980b5bfd03812eU, 0x7f15b368efa0d292U, 0x17241c7509b43b0cU, 0x53f681f1d2a7cb92U,
  0xdab381541afe1a81U, 0xb91229cafbebc6a7U, 0x190774d904155fdcU, 0x41e3c87f993312e6U,
  0xd2037ff0d62cb374U, 0x27e1f4fff51236bbU, 0xf35017c2cdbdd7e8U, 0x25a4e3200ef3cfe2U,
  0xcd7fe3aaee81b003U, 0xe14ff30037f4f81U, 0xec7f4687070ed63bU, 0xeee3cf01896d000aU,
  0x7f155a74ce02aefdU, 0xe8007fab1a81dad8U, 0xc6a87fdb04ac318aU, 0x1d7f19632bbd1a7fU,
  0x27291e1fc11f4149U, 0xba4ea4342d4b971U, 0x3106ac1cd4d7dbbbU, 0xd15a5d3eee3ce16dU,
  0xf10247a1e3692419U, 0xde1deff3303b3207U, 0x436d1ea147f2005U, 0xb615dd3a570603c2U,
  0xc247ede946c81945U, 0x81f4ee0f44d1f2cfU, 0x422b7813028d57e1U, 0xa4466d66bf47f679U,
  0x69379e0cf21166ceU, 0x4e0cb79c4ac0fa5U, 0xea81010dca7500c1U, 0x9281c30ef181552bU,
  0x113524bc813814e3U, 0xe5a4160ef7cbab51U, 0xf345d825127d74dbU, 0x2be7f15df81cfU,
  0xd737abdfe8312adbU, 0xb1f9ed95f8bd1bd0U, 0xe30f32817f3540c1U, 0xe9a7147bc54a51ceU,
  0xde362683e681bb37U, 0xdfccc20a95976636U, 0xe7f49a81c9c416b2U, 0x840181b6d59ed1ffU,
  0xea96eafc05879d81U, 0xf72dc99fa8ffaf1aU, 0x1bbc8181e8ead31cU, 0xc2cfc3304341d89eU,
  0x54e05db801feeeeeU, 0xc97f1b81ddf1227fU, 0x7ce71ef649cb8131U, 0x754f5206b10f7ffcU,
  0xd2a445de540b247fU, 0xe8ec8397bab6bb7fU, 0x3fa1080fd7e67f81U, 0x810e31aa81542a7fU,
  0xc32b28f3ff41be43U, 0xe1fa81ec13355c72U, 0x7fb7c15af60a1b45U, 0xc38113367f59f113U,
  0x147549ec6027eb1fU, 0x2dce1fff1f87f18U, 0x47f2bf8e4b3a101U, 0xfff75c42367f44beU,
  0xb55b298feddfdf0U, 0x819f882881c47f16U, 0x7fcf2226472e2992U, 0xef9d0d4aca197fc8U,
  0x69eaa1ca9df2e277U, 0xa517e4e1df603828U, 0x10fc9a1ed8af7f7fU, 0x81dbc5567e7fff8eU,
  0xee7fecebb57f69f6U, 0xcf023bdd0d76e27U, 0xfffffefa0000218bU, 0xfffff4c900000cabU,
  0xffffe8cb00000127U, 0xfffffdecfffff99fU, 0xffff887afffffff7U, 0xffffe270ffffffe3U,
  0xffffee86ffffffd7U, 0xffffc70000000989U, 0xfffff95ffffffdfdU, 0xfffffd580000005fU,
  0xffffcd6afffffbfbU, 0xffffca02fffff5e6U, 0xfffffaf4ffffe58cU, 0xffffcb310000382bU,
  0xffffe74c000000f3U, 0xfffff5cbfffff443U, 0xfffff3120000006bU, 0xfffffea5ffff9f73U,
  0xde3ffffc99dU, 0x13efffff378U, 0x10affffbc16U, 0xfffff17800000150U,
  0x98efffffb1aU, 0x16bd000016b6U, 0x1f0bfffff8e4U, 0xfffff0a3fffffb4dU,
  0xfffffd56fffffa8fU, 0xfffffe6effffff49U, 0xffffee55ffffe9a4U, 0x267bffffffbfU,
  0x3192ffffea97U, 0xfffff9e5ffff852cU, 0xffffd2d9fffffa56U, 0xffffff78ffffff1cU,
  0x12defffff15cU, 0xffffffc0ffff9b99U, 0xffffe7160000476bU, 0xffffc328ffffd7c0U,
  0xdb3ffffcd05U, 0x246100002c2eU, 0xffffece9ffffef3fU, 0xfffffae9fffffbf3U,
  0xfffff9c2ffffe053U, 0xfffff104fffff854U, 0xffffff9c0000087fU, 0xfffffa26fffffb5dU,
  0xffffffd6000011e2U, 0x4fb0ffffed53U, 0x2f0033564300e5c1U, 0x4f0054002aU,
  0x2be07200f30028U, 0x29000049e493c1e3U, 0xcd00e6007b002226U, 0x4b000000f3000000U,
  0x1ce90000520000U, 0x3200d80030434377U, 0x345b371410e80087U, 0x5fd0110052001281U,
  0x2e005600008c2800U, 0xc800a8e7cb005bU, 0x3ab0000000U, 0xe43a85e300cc00f2U,
  0x2e0000f29a001f00U, 0xc7d71e000032eab1U, 0xcbee00000000cc00U, 0xa6003e0017648100U,
  0xaf0000004235U, 0xe8f4002700e0009bU, 0xcb5b8600000f8f00U, 0x37383000000000U,
  0x6bb120addac1e3U, 0x3300003800e40000U, 0xb0377900c100U, 0x81da4a00143100e4U,
  0x2e46e3e92c00000fU, 0x303ff38e0030d300U, 0x180000000018U, 0x230000cde49900c5U,
  0xe1e9c2000fe4e58bU, 0x4f006226b735006eU, 0x39e400d1cff600c7U, 0x3d1b00U,
  0xd2bd4de10038d700U, 0xaebea6003ce16aU, 0xc00009600340049U, 0x18000026003400cbU,
  0x2b00000000efe400U, 0xb0ac11000000387fU, 0x5f00df0000dc0044U, 0x4f74e9a200004000U,
  0xe000f4b16700U, 0xbcf2000000459049U, 0xb200a900007800U, 0xc80000dc0000ed2eU,
  0xecc700007e3400e7U, 0x4ce60056153b00U, 0x7f00d000U, 0x241a002ae600U,
  0x10500000ee0017U, 0xc90acf00d0c000U, 0xe233c5143d11251fU, 0x2f00d01b00cf1000U,
  0x5cd8a8U, 0xf400d50018cd00U, 0x2700001de90023e6U, 0xd5a1390d0000cdU,
  0xeb7b8a00bc0000U, 0x81e48200000000U, 0x372abb790000001bU, 0xc100ccd0f100d2bfU,
  0xccaa000000U, 0x8154000000000000U, 0xee00f5U, 0xa24731d8000b0000U,
  0xd2f6000000000000U, 0xd9000000cbdd0030U, 0x1048a554d200bc00U, 0x54e2c00000U,
  0x7518ebbc003c0014U, 0xbc00e3e7db00U, 0x19df9d0046U, 0xc841e6000000e5cfU,
  0x7f0000150000f6U, 0x4c00b8004e00d4U, 0x169300000000cfe7U, 0xa100cfc8f7dbc4beU,
  0x1c4e00f3000000U, 0xd80000U, 0xb000000ce090035U, 0x4d0000360000U,
  0xda000025c1edU, 0x0U, 0xdbce63a5001c00caU, 0x1a00272c00261f38U,
  0xaeb4002245001711U, 0x7f270000c08a0000U, 0x1200000000000000U, 0xbf2700001f00U,
  0x120000430000005fU, 0xb70000360000U, 0x1d00U, 0xc2000000000000U,
  0x495c00006000U, 0xf3001cce00ec0000U, 0xd300001400U, 0xf3e100de000eU,
  0x100000f8001000ebU, 0x533f0b001200cf00U, 0xde0000dfc5f100f5U, 0x21f2f200eff2U,
  0x800000a002bd530U, 0xf7000000eb0000U, 0x13dedaeb000000U, 0xdfd8f3dfU,
  0x7f00000ee7dc0000U, 0xb00000011c6U, 0x6b006b0000000000U, 0xd56b321f00180000U,
  0xe9e2c400000000ecU, 0x20ae00000000c500U, 0xb80000000000cce2U, 0x560000000000U,
  0xc5e0028002f0000U, 0xf3ce00700b004aU, 0xb55100d30000003eU, 0x7f30c400bcU,
  0x68c700e4e12800U, 0xc0c600000034U, 0xbf00810000b200U, 0xfc131260a093000U,
  0xd900314600000eU, 0x71001cac00ce291fU, 0x390000000000e614U, 0x430000ca00000000U,
  0xed7400f4cf00c7U, 0xd0000000efU, 0xb80008002dU, 0xcd0000c000000000U,
  0xcb000000341200U, 0x302d0000c7U, 0xc75200001a4b40U, 0x5a00eb00000000U,
  0xe3002ae94af700e2U, 0xcf00d4093d0000U, 0x10d1c3000000d4eaU, 0x9b0000c5f2000046U,
  0x2900c800420000U, 0xa9ef2b0000d50000U, 0xe8000053e400cf36U, 0xa40000750000001dU,
  0x7fb0ac00000000U, 0x34edeb00d7e900U, 0xde560000000059U, 0x447b29000fa42bedU,
  0xd600100000U, 0xd900f100004f4c00U, 0xa100e7a400ede8U, 0xcb001e00235f2cbdU,
  0x4f00000f4729baU, 0x81000000000000d4U, 0xc91a6a00000f0042U, 0x3a7e270000f151U,
  0xd444c0000000000fU, 0x792700000d2200U, 0xe4c2000d0000c000U, 0x20e8cad6000000e5U,
  0x180000db13c3f1U, 0xe536000ceb6a0000U, 0xf2df1300000d0000U, 0xd500c4ef00d9bcd2U,
  0x9920b00U, 0x1b2d000000adU, 0x3eeef200a000U, 0xd10040130024005bU,
  0xa500b322d3218100U, 0x4326252800090017U, 0x2700f12c5d00c1U, 0xf0000000004500e7U,
  0xe30024da000bdd00U, 0xe4ec0d000000db3bU, 0x3100U, 0xd0004a2e0a260000U,
  0xe000c1ba00dac70bU, 0xe500090035U, 0xa00bd2500eb0e00U, 0xd000e15300880d00U,
  0x16008141242800U, 0xc200b800ba0000deU, 0x422f00eb9f0021d7U, 0x4117000000ee1e6fU,
  0xe8ad600000177f00U, 0x3f000000c70029U, 0xbe0000000000af00U, 0x58005015006241U,
  0x1c0000000b000000U, 0x11d0d028003a00U, 0x3f000d0000U, 0xde17009ce000U,
  0x4c2400e600000011U, 0x1a97d100cfU, 0x1366ffffe8f5U, 0xffffcc4a00000b7bU,
  0x5c100004b9fU, 0xc84ffffedccU, 0xfffff1960000148dU, 0xfffff1ce000015ceU,
  0xfffffcffffff9679U, 0x145500003692U, 0xd87f006abe350000U, 0x170000000000U,
  0x9500000000440000U, 0xccd8812da91eU, 0xd2004d0000f47fU, 0xecd3d6dbd9ee0fU,
  0x38320000ac000000U, 0x7fac1800583400U, 0x2c002ec8ba005600U, 0xd21700000081c000U,
  0xc8005f6900e1f2U, 0x7f00000000e400U, 0x2a0020c200007f00U, 0xe60000e89f441dU,
  0x1b00c4813a000000U, 0xbd00430000e740U, 0xef0037007c7f00d2U, 0xc5000000470000b4U,
  0x4ec7e66f0000006aU, 0x2a0081bb000000U, 0x14e665008164U, 0xbb2000910060U,
  0x810000e100232aU, 0xe95000dee80000dfU, 0x9900004e00bdbaU, 0x2a7f0025000023deU,
  0x42000019000028U, 0x3600cd0034007f14U, 0xdf0000d359000025U, 0xe275000000007f00U,
  0xbe17d266000000U, 0x7f00005340c300c8U, 0xbf8700000000U, 0x81520095000000U,
  0x81f3003f00cb00U, 0xd7c2000000U, 0x4700000052c645U, 0x28007f003cU,
  0x8100975359003476U, 0x5a6c00000000U, 0x21b4002d3edd0000U, 0x521cb48100431a28U,
  0x1e00c60014c1255aU, 0x33810000d300d3edU, 0x810f0000d30000U, 0x493f001513ea1ed1U,
  0x79cf0026c500da4cU, 0x1d7fc2bcd1000000U, 0xa600U, 0xba00007f00002300U,
  0xbe69003c00U, 0x260000bf7f5aU, 0x85130000000039U, 0x4c008100000056U,
  0x1d00eed0f1001627U, 0xcdf40081de0000U, 0xeaae310023007fU, 0xcf000068006f00U,
  0xd342007f0000c5U, 0x176da1d70047dc00U, 0x816d0000000015U, 0xc31800bdee00b700U,
  0x7fb900300000U, 0x360000d4b4d800U, 0x3200d48100000000U, 0x672c00c1e140U,
  0x410063U, 0x81cab9U, 0x22ba0000ee160013U, 0x53339481e900e700U,
  0x2181f3000011U, 0xc127002c00cb0000U, 0x41000000a683977fU, 0x3e004d8c710000U,
  0xa6cd000000000081U, 0x4f00283f4f00c600U, 0xc9e15e00caaa561fU, 0x2a3700e737810000U,
  0x14431fd61a26d6U, 0x7fb20000003f2fU, 0x990000004b004a49U, 0x81e4e2549af00000U,
  0x910000008a4d00U, 0x4900cb8100000000U, 0xf00000ea00d437U, 0xdba51781150000U,
  0xd88c9b4b000015U, 0xecdd7f27cb000000U, 0x7fc700001a11U, 0xeb00ab00U,
  0x150000580000c3U, 0x5481005d8e00U, 0xc3c8000000e800U, 0x29d381a0c8210000U,
  0x6a810000d4U, 0xd00000c52be000U, 0x342dc6e8007f00U, 0x4d00003042a90000U,
  0x7f0000003a6eU, 0xc9c8cb9b206bU, 0x12440000002acd81U, 0x430000d4000000c9U,
  0x2fa6cdd10081U, 0x2f34000000a90041U, 0x32d100c400001c21U, 0xdfdf0081000000U,
  0x38c8818700c7U, 0x570000bd39d10000U, 0x9b004e7f370000c6U, 0xca8791e80000U,
  0xd400374700003792U, 0x127fd90000000000U, 0x412600005d7f00cfU, 0xc100b100c800U,
  0x21644394c15100d9U, 0x61949a1c007fU, 0x7a00342b000000U, 0x4a2a00007f9eU,
  0x5e002a2cc700U, 0x19350000a981d874U, 0x17ba000000c9U, 0xe1f0000000818d00U,
  0x81df00004e0000cfU, 0x68001d2dd95700U, 0xd00000000002800U, 0x3a000000007f00U,
  0x1e00001d8a7fd7U, 0x2d2900226a00002fU, 0x5d0000000030U, 0x7fcf6d00U,
  0xd88100e300100000U, 0x5f9000e00000beU, 0xb581261f00000000U, 0xbae899b4de00U,
  0xb435002bd0cb0000U, 0x2000aa7f004a0000U, 0x29c78e9c1200U, 0x7f50000041b82c00U,
  0x3200001e350055U, 0x995700d1008100U, 0x21ec2c213e41U, 0x2c00d000e581U,
  0xc8003700000000c6U, 0x7f000027dc0000U, 0x1f0091006849U, 0x7f00a3e38900d344U,
  0x11b6004600140000U, 0x1653e38100d3ca00U, 0x1bc3210000f5e1U, 0xe90c00237f0000U,
  0xbd00e20000000039U, 0x1b0000d8007f22U, 0x9800000015009aaaU, 0x6fce387f340030U,
  0x46c66a0018849eU, 0x810032000075U, 0x63000049dc2ddb00U, 0x5281d8e30000e2U,
  0xb837bbe0f20000U, 0x3a230000008100a2U, 0xb90000ccU, 0x7f000012359b0056U,
  0x560087cf000000c1U, 0x18ccc900007fU, 0xc5f200d60000004fU, 0x816fce2e00000000U,
  0x7f00933a00U, 0x170086e4001d0000U, 0x6a000000d1U, 0x2f00007f00350000U,
  0x819600330000006bU, 0xbd00db000000U, 0xd3a0e500b50000U, 0xb300007fe8000000U,
  0x31ccb30060U, 0x36a100a700008100U, 0x5400000000450000U, 0x2f6881e09d000040U,
  0x1f9a00c6008100cdU, 0x3700c600e631342bU, 0x9200e74a34U, 0x7f1d3400cc00a5U,
  0xc933001e007fU, 0xde000000e02332b0U, 0xeb62c0ba9fU, 0x190081e50000c960U,
  0x9800000000000000U, 0xb20000e9d581c600U, 0x89002f7f00U, 0x3d00004200U,
  0xa100ce000081U, 0xca0000000000U, 0xfffffde300001af5U, 0x299fffff46aU,
  0xe2200000bd6U, 0x1017fffffe4aU, 0xffffe8fa000016aeU, 0xfffec78f00000a06U,
  0xffffe39100000ba4U, 0xffffe41c00000b55U, 0x172b000005c3U, 0xfffd99fbffffff10U,
  0x478ffff70beU, 0xffffed43ffff1b97U, 0x119bffffffd5U, 0x2f0000053fU,
  0xc01fffff2dcU, 0xffffe2acfffffc23U, 0xfffff79500006010U, 0x5efffff1cfU,
  0xffff8099fffb2297U, 0x1570fffff344U, 0x16f8fffff5dcU, 0x4fa0000016dU,
  0x412ffffffd7dU, 0x9a900000170U, 0xfffffe5500000be2U, 0xfffffb8efffffacaU,
  0x19610000109cU, 0x10e8000004eeU, 0xfffff520fffcf750U, 0xb47fffffef7U,
  0xffffe49100000086U, 0xfffffbb600000112U, 0xffffa9ec0000051bU, 0x16ac00000995U,
  0x15e2ffffe8b1U, 0x148ffffffabU, 0xfffff5c6ffff879dU, 0x17c000037eeU,
  0xffffde5f0000026fU, 0xffffff10fffff8b1U, 0x15ec000005a1U, 0x2348fffffe0eU,
  0x5070000130aU, 0xfffffe4f00000e1cU, 0xffffff88ffffffebU, 0xffff5104fffff985U,
  0x90ffffe9aaU, 0x6b700000b96U, 0x38edfa81492fecceU, 0x7407c706cb812a1cU,
  0xb7fe01dd931aa71U, 0xa081212981b3a80cU, 0xffe87f1c20c48120U, 0x17e3a4fd2e1319f4U,
  0x9f7de1a5c164ce4U, 0xc6707fc47fca467fU, 0x1530812de2fb5381U, 0xdef6b112c9d9a920U,
  0x113e19e5390fee4aU, 0x8b13f8e09c8126f1U, 0x2d385fef3416d0e0U, 0x727f197f57e707eeU,
  0x5a746e1809aad421U, 0x4483bfa4eea0b1bU, 0xf8a0fee01ee3e41fU, 0xf89aea811e69f17fU,
  0xc7ce9e487f277f7fU, 0x192720be6ad67fc9U, 0x9c1b297ffe0599b5U, 0xc1213cb6c394e700U,
  0xfe1800815a450bc7U, 0xb7e5b4008ca823eaU, 0x7fea7fd91448f581U, 0x8228ce1221e6f8bfU,
  0x8e8b83713aaa473U, 0xff597faeeb674322U, 0x18dcaf8f24219a46U, 0xa73e95060107cd5fU,
  0x5fb817f52ea44f0U, 0x3c3391e325e971ecU, 0x820ac2506f296dfeU, 0x3ef1b7f08b4e6c1U,
  0x7f7f0cde62680b81U, 0x74c449638119f9f4U, 0x400abec6197fdff1U, 0x561ecd9605af7feeU,
  0x7f6dcd7f0268d314U, 0xdba53c7fcfa69a07U, 0xe6294a31c581a73cU, 0x7f81bed87fcf0db5U,
  0xd83115c10f25e0fdU, 0x490c1d345ac447faU, 0xdc432836c5b80e3bU, 0xf62ef5e01224817fU,
  0x9519bb4ee781e63aU, 0xd6f985dc02f2eadbU, 0xe37ff7f736ea1e01U, 0x7f9c264b29fbf881U,
  0x613a420cd8db407fU, 0xb81e2a1e55530281U, 0xc5edebe1c289011cU, 0x27e3d3cd267072f5U,
  0xde7fbf0e1b2c3e6eU, 0x7f14c700251333f6U, 0x8138ae1fd58f8111U, 0x164d7ca0d515ed2fU,
  0xabca81eefa8fbfc4U, 0xef2b903f0bdf317fU, 0x4f0a445035722dc7U, 0xdcc6c0ff4c9705e2U,
  0xfb21e3df00d75c6aU, 0x337a523a617f7fb5U, 0x8126967f811d9522U, 0xe3f8810a2c7f4cd9U,
  0x9c0be131e0d475f2U, 0x40793adefdd761f8U, 0x912cc3136f19a1e7U, 0x81d7f008181ecc8U,
  0x572ed8a2ea8431f5U, 0x7f7f8f79e745bb10U, 0xee78f41813b3802U, 0x16f67fa5d26c2378U,
  0x2c65bcdf7f7fe009U, 0x988fc912190aff04U, 0xf7f9575c30efd30U, 0x1cd269c94f1181c4U,
  0x7fd055c12e16023aU, 0xf7810e81c27f50feU, 0x3f850ce6a6814357U, 0x8116e9e94627f930U,
  0x62bd33fcfb03359U, 0xb285aac49cca7fedU, 0xec14e5f391fb7fa2U, 0xdefff8367f1c2d0aU,
  0x93f65f4f3abf65dU, 0x7ff1d8174b388dd2U, 0x3425f1ffcdd7d07fU, 0xf20ef8a2545bfb9eU,
  0x4daee3e2537f0e3eU, 0xfae5e1f9db0f750fU, 0xe2f0e15e8129d320U, 0xdb7f3108fb0ae9e0U,
  0x26dc0d6fcfcc18f2U, 0xd5c11fd6bd95153cU, 0xf7ecb85acb2a32ccU, 0xdcd805c247fc0f16U,
  0x64d77fe2e48f7f60U, 0x1717f41833358be3U, 0x83ce53fbc13d845U, 0xbddf11c13724d918U,
  0xe9cecc4c2f043a63U, 0xc4c020abda3bcbdcU, 0xfa81d94257faa21bU, 0x9a230fe61729b024U,
  0x3637b62681977f26U, 0xce4817fa420164cU, 0xfffff5410000417cU, 0x26dcfffff39cU,
  0xfffff98100000d04U, 0xffffcaa2fffff4b9U, 0xfffffd44000016b4U, 0xffffffe700003bc3U,
  0xffffff8bffffe55fU, 0xfffffcaefffffa5aU, 0xfffffac9ffffe92fU, 0xffffff7900000b27U,
  0x11b90000006dU, 0x2a20000004cU, 0x3863000052acU, 0x223ffffcffeU,
  0xffffe2d7fffff082U, 0xb4fffff89aU, 0x34a5ffff8f8dU, 0x36ed000013deU,
  0xfffffeabffffff28U, 0xffffdd4cfffff2d5U, 0xfffff5690000024fU, 0xfffff165000012b6U,
  0x4a0d000047a8U, 0x26500002cbfU, 0xfffff1d0ffffd394U, 0xb97fffff359U,
  0xffffdd45fffff126U, 0x1ce70000055bU, 0xfffffccaffffff38U, 0xfffff2fcfffffcaaU,
  0xfffff42200006b72U, 0xfffff03affffeac5U, 0xb000000168U, 0x8b000001df1U,
  0x462f000006c1U, 0x37a60000074cU, 0x1fd30000004cU, 0x344000003ecdU,
  0x21100000b9eU, 0x4d10ffffec18U, 0xffffeace0000051eU, 0xfffff2ec00004dc2U,
  0x346f0000043aU, 0xffffde5bffffc024U, 0xffffefc7fffff2a4U, 0x8e00001589U,
  0x6254ffffffe3U, 0xfffffec000000f58U, 0x181f000050003fd2U, 0xc400d7d8e6000000U,
  0xf1ebf300002b11U, 0x4716000000U, 0xed0000000000d51fU, 0xc60fcf001000e0b0U,
  0xdf00ecc216270000U, 0xc40a0021edU, 0xce004d000000U, 0x552100810000U,
  0x360000dc00005fb4U, 0x5d0000000000bb1fU, 0xcc420067007819e9U, 0x4300U,
  0x2f000000140000c0U, 0x852e250000c6U, 0xde0000c6d5d400U, 0x1600005700f1U,
  0xb0000a92600U, 0x320000b3eaU, 0xc11c4b3781c800U, 0xd7009adba531U,
  0x819900e3e400U, 0xb40022e900U, 0x2bd15ea382e0c900U, 0xc50052008acf8aU,
  0x1e9e0f0000c300U, 0xac004b00U, 0x360d1400160000U, 0x2e000000c881e72bU,
  0x4c210000005944d7U, 0xea000027184e10U, 0xe92300e200003bceU, 0x25e2001f000d590cU,
  0xcd10429e0000d2U, 0x1c3200f5e7d5edU, 0x1c1d0000dbcf0017U, 0xac37c5b5e300d800U,
  0x9b007f000000006bU, 0x45cf8c2aU, 0xf300000c001e0031U, 0x4ab75c00cb00U,
  0xb500002d000000U, 0xb0000d44df1U, 0x4bea0000003c00U, 0xd2b9d50000002cf4U,
  0x422100efe43800U, 0xd0bef200c51fcdU, 0xf3a9d300U, 0xf0000220f00c300U,
  0xbd272d0011420027U, 0x4cd52e00dbd4a011U, 0xe1a0000cc2a123cU, 0xb83a23b032d200beU,
  0xe71200007f2ce960U, 0x43f00097ed004c19U, 0xc400005f00275100U, 0x88ac133e38001f00U,
  0xba00480000000000U, 0xb20024af3faaU, 0x36000000df0000U, 0xd112d2d100U,
  0x0U, 0x4100001c004800U, 0xb70000U, 0xcf00000000U,
  0x3300f500384f243bU, 0xd846002700U, 0xbb00000000003481U, 0xe300630000002aU,
  0x9b00004c00000000U, 0x31b8e7000a000000U, 0x0U, 0x230062002100df00U,
  0x3d0f210d0075241dU, 0x47002bce00000000U, 0x1b00f5b8e60014U, 0xdc00290000b500c0U,
  0x4700001be5de00U, 0xe00000e010U, 0x88003b36b0000000U, 0xc8d000000021d300U,
  0xaf00ed0028960073U, 0xba3c18007f00U, 0x49e900b4000041U, 0xeb2f00f5d900cbU,
  0x2eed561e1d000018U, 0xa3310051cfd300U, 0x1700f20900000047U, 0xc200173853001d00U,
  0x6d00000000d700U, 0x5e0019f7U, 0xdf3f000000812000U, 0xeb0000570000e721U,
  0xd700d7d144d047daU, 0x1dc33d00001800U, 0xd5000000280000U, 0x4000490000e30000U,
  0x260000000000dce5U, 0xd20036ef000018d8U, 0xe0000f71b0017ddU, 0xef003af7140000U,
  0xe8000000bac6dbd2U, 0x17007f0000c100U, 0x18000fdf00e5ef00U, 0x521e00cd00000000U,
  0xcc0000000000U, 0xd7000000f153003bU, 0xcc00001f2434d5U, 0xdcd3bbe7001800U,
  0xee00e600880000U, 0x1e000000007300U, 0xf4ea00ebdacae1c9U, 0x5200e100a451e61dU,
  0xa9f100002724dcU, 0xbb2deb00229adb00U, 0x35e60000ec81U, 0x17220000dadcc425U,
  0xdbd30000000000U, 0xc700U, 0x2b00b800a600a41aU, 0xe30000c100U,
  0x2d0000000039U, 0xded2001b0000cd00U, 0xc00001900005421U, 0x25002a00000000U,
  0x45391e7feadb00d2U, 0x22003e00000000U, 0x4719ea00ae001639U, 0xe5eb000c1a31c7U,
  0x3f25000000004f00U, 0xd600320000006800U, 0xd500000030006200U, 0xcfd14500f1004e00U,
  0x45eadd00000045c5U, 0xacce003a00U, 0xe900f5f2cbb1aac3U, 0xbad100c81f00ebU,
  0xda00ecc433e500d5U, 0xeca400cad00cU, 0x3c00c9baU, 0x58003a00cf812fU,
  0xe400b800d800afU, 0x49U, 0x2ae9U, 0x17cb1c00f7c91400U,
  0xf00d00214b00U, 0x1d6caf00000000U, 0xe80000250000f0U, 0xe300c3000000c7acU,
  0xb5c6f100300081daU, 0x25f1000024000000U, 0xbe000000000000c1U, 0xe400201800c2cc00U,
  0x1200cdb6000000U, 0x2500b66f00e50016U, 0xa21d00001b1ee3a3U, 0xce0000ef1700U,
  0xdad7d8009fU, 0xf000d3b05500U, 0xc52000d99eef0dbU, 0x31000081a6000000U,
  0x380000181e7157U, 0x2c00ede955e800f6U, 0xf4443c00e800deU, 0xe700e10082002858U,
  0xae001e0000b545U, 0xedba003600ceU, 0x34ad00000000U, 0x24002a00e84cU,
  0x13df000d000000U, 0x5967299400520000U, 0xca000000d700e5U, 0xe3be3d00U,
  0xdeed0d00004b00U, 0x9ee300005e000cU, 0x990000f500ed00U, 0xd4d5007f29e8f0U,
  0xe00000000b0000U, 0x9100000ac8f100U, 0xdc00612f29daf1cdU, 0xdc00681d5eda00U,
  0xe22000f1004a0000U, 0x53004d00c1000000U, 0x3500e9822d0000U, 0xe60000a400d32f9dU,
  0x72322676U, 0x4f00d881d0000012U, 0xd0243676c8381f00U, 0x84acf000002e0000U,
  0xd5530000b30076U, 0xa55117002fa5U, 0xe6d80000000cU, 0x30431b6f1a00e6f1U,
  0x1e2028140f7f002aU, 0xca00dcU, 0x1b2b0000cd000022U, 0xc00061003b004a1dU,
  0x28000017d60000U, 0x2c1a33000027e300U, 0x45122bc30000f2U, 0xcd00002100331200U,
  0x2ba2000023U, 0xdc43f50000e62600U, 0xf30c00db000000d9U, 0xd100ce0016c20000U,
  0xee00e50000c9dfU, 0x1700ae0000001800U, 0x1300d800c200U, 0x1f00139ece000000U,
  0x357f00U, 0xc500d6df48001b00U, 0xe1000000000000b6U, 0x900c737d9270027U,
  0xba0000de0000U, 0x1ff1dbe9ee00d5edU, 0xbc00b8ba002900U, 0x4700350020dc0000U,
  0xc910d000005700d8U, 0xd0afbf00000000U, 0xd10000e70000d6U, 0xd7003000e1004000U,
  0xb6eb1b00da2fc4U, 0xa3da000000000000U, 0xca003400a8afe8cfU, 0xf681df00621a00U,
  0xd400009000d400U, 0xed380022U, 0xa100009200U, 0x140000700c00c9c6U,
  0xd324d7140b389f2dU, 0xc326008f00b300U, 0x793800U, 0xb66600d400810000U,
  0xcf00U, 0x260000000000U, 0x3e0000b44d3056U, 0xa600c3000041e2U,
  0x9c000046U, 0x2a0cdd00caU, 0x1500ba0000004b00U, 0xa0000096002fca00U,
  0x9b00370000e3002aU, 0x6f22000042255fU, 0xd30f0000005fcfU, 0x1bdb00e700a129U,
  0xa80066ab2d0000U, 0xd3b7000098c70000U, 0x17d400b9cc7c002fU, 0x1600cfb400002aaaU,
  0x44000052437f0000U, 0x98b20de5000000e3U, 0x34000000U, 0xe200f1e6ee000000U,
  0xea0000f700b80010U, 0xea7f00e5b300U, 0xfecf10000540014U, 0x310000111cc0c6U,
  0x170000000040d400U, 0x21001b210044f5U, 0x5764c4002f3c391cU, 0x560000b02f00U,
  0x3300210000463300U, 0x700000000000b100U, 0x11000081eb000000U, 0xeac300c0ee001700U,
  0x3300130b00000000U, 0xdb23001400f5f3U, 0xf30946c00023U, 0xee004515000000U,
  0xf100e50015cbU, 0xd10000004ce300U, 0xc9f6d20000U, 0x2b0031002500be00U,
  0x240000cf00004800U, 0x31000029f700b10cU, 0xef00000000200000U, 0x5f10580018292c00U,
  0xb3c000d610000U, 0x2110d600250000U, 0xe61d090000a90000U, 0xdb003200113600U,
  0xc44e002cde81e600U, 0x38190000c847a000U, 0xe2af0016f200ae30U, 0x5000000000ab00U,
  0x4000eaf43500e734U, 0x220000085bU, 0x173cd1U, 0x160000150051f400U,
  0xdf00ecf600200000U, 0x2d192a0000230000U, 0xf200100000250b00U, 0x1f00cee90000bcU,
  0xa4c3000015ecbb26U, 0x1300130081da0000U, 0xcf0000271b1900U, 0xe8f200db00be00e1U,
  0xb4d3000000U, 0xed000b0000e8U, 0xb84d2300f0e100U, 0x31cc0074003300afU,
  0x1cc20a001f00cfU, 0x620081d70000U, 0x16000000be321cf1U, 0xcee3d6c700d4U,
  0xe44b00b611U, 0x4a00e700f1abe100U, 0xef007844000b2e15U, 0xafec000018da0000U,
  0xa1ce4d00afe9e442U, 0x3400391e004bc4U, 0x330000000000U, 0xa9bd00000bdb00e4U,
  0xf6c300000000e2U, 0x1b0000000000U, 0xfddee00460000afU, 0x6e000000a7d3d200U,
  0xf600ea2843b9U, 0xdab2c000371c2e00U, 0xd000e500000010U, 0x66000000U,
  0x5e330081U, 0xce40000000cc00U, 0xbe00d600000000U, 0xde40001cc700e2U,
  0x6500c400130000dfU, 0xd3168afd2527fe9U, 0xf500f40000cb00abU, 0x89003ecc002400U,
  0x380000c10000aeU, 0xd1000000ed2bc700U, 0xd810d50000c200U, 0x3b2526004500b4eeU,
  0xc8df00111e00ebU, 0x59ea27cd00U, 0x41dd00f10090ed00U, 0xe500f234c000U,
  0xbb12000a00000000U, 0x330054dad7ee001aU, 0xf300002b6900U, 0xc65ee30025c3def2U,
  0xea00001d27af00U, 0xc40000aa00180cU, 0x43000000433000U, 0xc80000340019d9U,
  0x497f0000150000U, 0x490ccf47cfU, 0xc200310000c200e3U, 0x1a000d00U,
  0xd9f0002a00c5U, 0x62e800cdbb000000U, 0x1500f3c000a600U, 0x21df00c1c6004900U,
  0xe00bb33103f00U, 0xefca002b0000U, 0x8100004d50ea002eU, 0xdf001b5a581eca24U,
  0xce000000ad00edU, 0x3500b62400000000U, 0xa616df00f5002aU, 0x47c2320000001700U,
  0x4e00bf0000110000U, 0x3c00cf2c0000U, 0xeaedf4f020e700e7U, 0xcd760000dc00U,
  0xefe3efd48100U, 0x1400002aa7009700U, 0x210000001b000029U, 0x142455d734c8d2d8U,
  0x1500cf00003000U, 0xa27492ef8002120U, 0x2fdd00630000U, 0x40cc6b7700db37ecU,
  0x7f160000f60000b6U, 0x29d000207ab3U, 0x160014f500cc00c2U, 0x4d960030db000000U,
  0x1a0020b5001eafU, 0xcd1b0028970dU, 0xbb36d48d00cc00U, 0xf00bbb60000e00cU,
  0xa7cc000000d043U, 0xf4480000U, 0x77d900000b06U, 0xffffe39b00002b1aU,
  0xffffd4bafffff754U, 0xffffb6e600000e6cU, 0x3cbefffff1afU, 0x8ab8ffffb0aeU,
  0x41c9000046aeU, 0xfffffce6fffffe69U, 0x4ad2ffffab6aU, 0x4176000078b6U,
  0xffff9c4500000774U, 0xabc000003b3U, 0x32f000005f08U, 0x2e2b0000037bU,
  0x348effffddfcU, 0x2fea0000168eU, 0x7fe30000a5330000U, 0x9800e40f00000058U,
  0x2a6c00a300140007U, 0xb000062390000U, 0xd00003e8100U, 0x503acf53001100e1U,
  0x10003200bae900U, 0x461e000000U, 0x1700384adf4700d2U, 0x5247006737dede00U,
  0x14ccaf4b09de40U, 0x172d5600280b7f00U, 0x2a00000000d42fU, 0x28009a120030c100U,
  0x2e3144bd814aU, 0x41cb0000002b4cU, 0xda140000e800U, 0xecaaca000044ef17U,
  0xf06000000008100U, 0x42a56000002c1eU, 0xd54b0000e200U, 0xf0c200ad599600U,
  0x1a0000331d009a26U, 0xb92cdb7fbfc1255aU, 0x4500002b30000000U, 0x22000000003400e0U,
  0xc10000db81bc00U, 0xf14100dc2900U, 0x1f0021efd1c6001aU, 0x1300c37f21f4003aU,
  0x783900e2ebb7c300U, 0x35000000001e00U, 0x3a70211a00810022U, 0x2f210000U,
  0x61cc0000c2db0043U, 0xe6000000001600U, 0xbe0000a000f47cU, 0xe100c770589b533bU,
  0x150000c5d789U, 0xe27feb002d180044U, 0x287f002b00000000U, 0x4ad300000000e700U,
  0x15c400b50000002cU, 0xeae53d00U, 0xe0007df2U, 0x5e0026b800e6U,
  0xa9c99b007f7e00U, 0x68af00001a1aU, 0xb100001f000023U, 0x19002ff200e10000U,
  0x81002a3600ec2d99U, 0xcfc6f0000700f800U, 0x0U, 0x811e00410006U,
  0x2d00002a00d517U, 0x3cdc3500ec00ecU, 0xe4d500U, 0xd3bbf4a939d446U,
  0x5538b98100U, 0x2a960000000000U, 0x9700002c0000003dU, 0x7f00000046941dadU,
  0xa300000c2200U, 0x3000000000U, 0x501f004032000000U, 0xe721eb002c0000U,
  0x3a00000000000034U, 0x812200U, 0xd1df8100002400U, 0xb9dcc4002100001bU,
  0xf4002d00db0000dbU, 0x30000000000000f2U, 0x3b0000U, 0x7f0000000000U,
  0xc600d111003b00U, 0x1500d4000000U, 0xc5a100e4d150e4e5U, 0xbf6394c100166a60U,
  0xa038001a275ed481U, 0x3124dcd4305ada98U, 0x5f72d30011U, 0xcb2dda00U,
  0xcfeed90000U, 0xc3c000008100e500U, 0x81000000bb00d8d8U, 0x1500000000000000U,
  0x370000b7d5U, 0x10001c4630U, 0x0U, 0x6e007f00962900dbU,
  0xe20000U, 0x89c0000c8ce0021U, 0x417f6a721a000000U, 0xa2000000000000U,
  0x93ddd50000ea79U, 0xdbdd160000002a00U, 0x3e7f0034000000U, 0x2300000800c8U,
  0xccb60000000c1673U, 0xa20000a5000000U, 0x37d400003a815900U, 0xc8b000d9d6000000U,
  0x20000014000fU, 0xc5b700c286a600U, 0xa3e3acd6d01c0000U, 0xf60fd5310e002e1cU,
  0x27000049f0c40081U, 0x46002143000024U, 0xdfabd6000000U, 0xa800810014000033U,
  0x5200ebca00U, 0x3d5fcf2942000000U, 0x7f3a24003b820000U, 0x1400ee300e0000f3U,
  0x42cac1dd002400U, 0xe3000000ef0020b2U, 0xb5e2c50000000017U, 0x2b29ed16f3U,
  0xecf62600e2000081U, 0xec3b00000000004cU, 0xc400184ad5dc38U, 0x81e700d83c00eaU,
  0xd3b5361113b60021U, 0xeb3dc3c30017U, 0x1c76000000000045U, 0x6e0000000000ac00U,
  0x670000840095ae40U, 0xad00000011814b00U, 0x818a009c87000000U, 0xc400588b00b64000U,
  0xac000000002600U, 0x770000c400000015U, 0xd7000000e989236eU, 0x1e1d3c5d6ea76c00U,
  0x2200dd00bccb1d81U, 0x1347f300000065U, 0x3d26000000e66aebU, 0x1a25cf1f000000U,
  0x1c18b8c7d7104533U, 0x48cd1c810000d5baU, 0xc8e00000007fc630U, 0x1044000022c400e7U,
  0xcb00001bf1c713bcU, 0xf7ec0000001300U, 0xcc0000d8815e57U, 0xad3b1f23c11bedU,
  0xbd000000000000U, 0xdf200000dcd72c47U, 0x5f00a800c54b00U, 0x48002e6e0030bcU,
  0x6c0081e8ba7a57d0U, 0x5c000000001cU, 0xc9c2a289ca004e00U, 0xa6002df333004829U,
  0xad000000U, 0x7f00a0990000e000U, 0x160000f711000000U, 0xdc00000000000000U,
  0x120000d91b1c00U, 0xdf00e0000081e4U, 0x2d7f004200000000U, 0x340000000000U,
  0x38d100af1e340000U, 0xf41e00e6953800U, 0x4800ecc700bf5500U, 0xc000000030003500U,
  0xe081002900U, 0x240000c91900d3e4U, 0xd42c1367143100f1U, 0x7f004a00db00aad6U,
  0xdd00cee000000037U, 0x4626c5115f00U, 0x2a00000040001f51U, 0xb9001500000000U,
  0xcd90081bd00U, 0xc0240000ef002a00U, 0xf6e4000000001700U, 0x8100c900000000U,
  0xc7b9432300000000U, 0xc0dfb20ec4000000U, 0xd1d1c1812e00e2U, 0xbd00ecef00000000U,
  0x2500e3ef0000e9ceU, 0x53ea004d00ee00U, 0x3100000016ce00U, 0xd000002abe17U,
  0x600fb00008100U, 0x29004705002b2eU, 0xba00000000000000U, 0x2b002d9ab635b5f1U,
  0xf68100524e773900U, 0xebe019000000001eU, 0x2100755100000000U, 0x3270d200f3cbcd9fU,
  0x271d812a001e46U, 0xec007af80000f2f0U, 0x1b14513100ec3fU, 0xb6c000001f9c00U,
  0x5a00000016819a78U, 0x1c000000000000U, 0xe622002800428f0bU, 0xc70000110000U,
  0x11007f00c528U, 0x2e005e00f04200U, 0x9100000000006aU, 0xb500000000005300U,
  0x2e2c3900c400d6U, 0xbf00c00000cd8100U, 0x48d7cc0000000039U, 0xd1d681e1003e0020U,
  0x2f26c700dadf41U, 0xd400f1000000b900U, 0x1f0047d9c9f55000U, 0x9500000000U,
  0xd50000d4U, 0x1b001d81002b969eU, 0x2e0000b600b32500U, 0x47000047U,
  0x667fd4d900000000U, 0x585500d50000e5e5U, 0x4c0000004d002600U, 0x9a3f0000000000U,
  0xc00033cc00000000U, 0xb600dfd481a20000U, 0x2d47004fa629U, 0x5b612038009a1381U,
  0x4a0000000031dbU, 0xbd0000003f1b1fU, 0x6000003b223700a9U, 0x410053c7000000daU,
  0xc4bcc0007f0065U, 0x944fe5000000beU, 0xd20097b4e647cbU, 0x81d1000000000000U,
  0xb3ad150000U, 0x940000ea95U, 0xa6ddd81800a4293fU, 0x3117000000000000U,
  0xd1001c65e9291fc2U, 0x81000e00c7e3bf53U, 0x39000000a40086U, 0x17ba480000000000U,
  0x8781cbb920ca4aU, 0x1b002400d1a92e00U, 0x37e600002d000000U, 0x810f00420000U,
  0x130000ed00U, 0xf50d000000000000U, 0x530085227fU, 0xba004100af00a8U,
  0xeea70000U, 0xa0000000ad005a6cU, 0x4800810000U, 0x1300ed00d8d7U,
  0xee00db0000ed1cU, 0xf300b1000000U, 0xaf0000ce00000000U, 0xf52e12900000000U,
  0x2a1ce07f00e300c6U, 0x5cd53d58000000U, 0x257f0000004dU, 0x59000050000095b6U,
  0x37cc00003d8acb00U, 0xe0000000bd9e2645U, 0x7f00000e000000edU, 0x12000000001eU,
  0xf100002b2037U, 0xdf17000000e100U, 0xc9e600e3c9e50040U, 0xdf2c1ad52d00U,
  0x2c3400c50081U, 0xd53b2a123c26e227U, 0xb900b40000U, 0xb0000000d00U,
  0x70d1cfa3343c00U, 0x3d00008900d2819aU, 0x2c0054000000d6U, 0x34000000e3278100U,
  0xb3dedc38300069U, 0x15d9d33d21U, 0x1beed6e500b52b00U, 0xe00000e61c000006U,
  0x2ee00081000000U, 0xf3d80000b000U, 0x43f0c71f3000cb00U, 0xeed78100a552af11U,
  0xd522351f42dab42eU, 0xd117be3ff3f00000U, 0xdd000036a4007fU, 0xa6160000c60000U,
  0xc6f454cfec170000U, 0xbbd00000c7d7d100U, 0x30a200002b7fd200U, 0xcbda0000cc000000U,
  0xa80041bc32000000U, 0xe8000000000000a4U, 0xe500000000U, 0xbad625000e0000U,
  0x18008100U, 0x4a003000000034U, 0x46001700e90049U, 0x7f005b0031e60000U,
  0x8f0000U, 0x7000001a3741U, 0x7f26000012001d38U, 0xb80000002300ebU,
  0xe80000952b00e035U, 0x1b000000d500f1U, 0xf92a00ef2aU, 0xf5c3f200003e0000U,
  0x390000810034U, 0xeb00c100ce000000U, 0xca2d00c9U, 0xee00a100000f0035U,
  0x12b3000000d500U, 0x7ff2004f460000U, 0x3b00380000e0daU, 0x4c00cf29ec000000U,
  0xd100007f00d900U, 0x5935U, 0xc521407100e27fU, 0x1300000000df0000U,
  0xe0007c2828cdb7e1U, 0xe0000013c3c80034U, 0x40193500003100U, 0x57004500000000d4U,
  0x83008100000000U, 0xbcd70000ee950000U, 0x920085f1db000081U, 0x82276a000eU,
  0x7e0000d144U, 0x7100000000b70000U, 0x1400541a6e0000U, 0x64006d00000000aaU,
  0x9ca7dc0000000000U, 0xdabc7f0000004cdcU, 0x4c0000e100002026U, 0xecca3f2b41000010U,
  0x81c906001eU, 0x1b0000c700f900caU, 0x7f0000000000U, 0xa600003500U,
  0xe0b4bc56d3004a00U, 0xa11c000000e5e7U, 0xdcabed81cec53719U, 0xb11e000000004218U,
  0x49f723c8000000U, 0x5200c5b2192cab00U, 0xecefe95600U, 0x2000002e001200U,
  0x19e09e00007f5200U, 0x230000000e00e500U, 0x2f0000000000007fU, 0xb8c12b00000000U,
  0x240000e3002eU, 0x8700e000a6900000U, 0xe009c84300U, 0x4a3fb211000000U,
  0x810090234400U, 0x4c003ba800e900beU, 0xd5cedf6e551f004cU, 0xe10000b511c2daU,
  0xb4532a00a50000U, 0x81db122ddc001a00U, 0x40000000980053beU, 0x7f00509b0042U,
  0x410096a7d44768deU, 0x360067e14c380000U, 0x5800360000260032U, 0xca00001000U,
  0xca1d000000810000U, 0xf3000000b200U, 0x1f43004e003d0000U, 0x17000000b000U,
  0xbbe00000110000U, 0x20000000007f00U, 0x2a3a001d0027cfU, 0xcc27c90000U,
  0x1cd5571f7f3ad6U, 0xba00a20052b9daU, 0x230029bc00U, 0x2100dd2100000000U,
  0xefd5185b229600U, 0xf44d00007f56U, 0x42330000cd0000dbU, 0x927f002ac51629U,
  0x3a130099e8950000U, 0x750009eb7300U, 0x1bec002841000000U, 0xedd3cf198131d200U,
  0xe9005b0000dc0000U, 0xdcf0ba24dcd8f200U, 0x9f00f000c6U, 0xcaae00ef540000U,
  0x3100004d00ef0000U, 0x1781001000b000U, 0x7f16U, 0x45c811002900U,
  0xbe0000d6U, 0xd20000U, 0xae810f00ce59b618U, 0x1c1a00eb00000fU,
  0xf2774f3b000000U, 0x2d971c00520000U, 0xc100000043d627U, 0x1634ca00000000U,
  0xdf000000002600U, 0x81c9000026b9c2U, 0x7f0000000000e200U, 0x31730000eb3f00U,
  0x2123dae5003e00U, 0xb220c60000d293U, 0x6051002200f43ba4U, 0xb3de00cc00U,
  0x3c00bc81131d005fU, 0x2c0049d9000018c7U, 0x1600d9e0eb00df21U, 0xafd9002d001cf34cU,
  0x234a00e410ca8f0fU, 0xe97f00172e001b00U, 0xb90bd400b5ed0000U, 0xc09000000002dU,
  0x8edf02919efa6c5U, 0xe83fea3d00005c7fU, 0x145fe500000000U, 0x3e00cb00000000U,
  0xbd00ec437f29U, 0x2bac25a00000d597U, 0xc4ee002000cc4f00U, 0x16c9000000000038U,
  0x9a00b742000018U, 0xc3000000c3a7637fU, 0xc942009e0000U, 0xce0015ba008100U,
  0x600024002200904eU, 0xbe3ca700b7df0000U, 0x81c400df000000beU, 0xe600000000002324U,
  0x5d000000e1U, 0xc21f1b001a00U, 0xae000030d70050U, 0xa00170000e938bcU,
  0xc85200000000c8U, 0xc381e7009a00ad00U, 0x81dccad0e14b0017U, 0x210000002100002eU,
  0x1ee8c600002f3300U, 0x3d3000001f223860U, 0x170c214c004cbf00U, 0xd30000d500d2e6U,
  0xc7e300cc7f00002bU, 0x3f00007600U, 0x43980000U, 0xd30081f1c300e700U,
  0x900002200be9800U, 0xdb00b200c9000000U, 0x55004a00f400e6d5U, 0x207fe4ddd700e300U,
  0xf5f0b9123a1700U, 0xce6ce9f100f4e6U, 0x360000002900ec00U, 0xd500f59bb27c0000U,
  0x2700000000U, 0xcbbf0000f2b881U, 0x7dbb00005100a200U, 0xb7a2940099000000U,
  0x240000000024ceU, 0x2000a42700a78100U, 0xb00e6000000d500U, 0xeccd8130000d300U,
  0x1e1536eb1ed28113U, 0xc11f002acdd70038U, 0x7fcd00003ae00063U, 0xc6ba260000cc00U,
  0xd7335cbe008caf00U, 0x9b080000c5e40000U, 0x5b7f1b390000ecU, 0x25f300003bd1U,
  0x8945bf6c4800U, 0xab3d360000d600U, 0xaa000000910000cfU, 0x6dU,
  0xa631000000U, 0x6970cfd300007f00U, 0x93000000af00ad45U, 0xc653000051b7009fU,
  0x71c15872c53c5d81U, 0xa06d4a00004cc500U, 0x1d0000dc29U, 0xd6000000e600U,
  0x2400dc0781ca35U, 0x31000000d21a00U, 0xc98300f000000000U, 0x3c8500582100U,
  0x8100362b007e2f00U, 0xd8cd950000000000U, 0x2f3600001fbe0000U, 0x88310000dd00U,
  0x2e1d00da0000e67fU, 0xef133800eb0000edU, 0x13000036d561d5U, 0x74b300000e00U,
  0x2a00007f00U, 0xcd82180000a70000U, 0xa00a40039U, 0x2abd7f2800003bf4U,
  0x22d60097cfbd0000U, 0xa9efd62e43U, 0xea00000000cf4e00U, 0xad9e24ac001300eaU,
  0x4c4721253281U, 0x820000139acfcb18U, 0xc7000000bc001600U, 0x2700310038d52700U,
  0x1000ec81U, 0x482c0000005d6bU, 0x18000000e7000000U, 0xe17f2d000015U,
  0x6b4800000000d92cU, 0x283400003d005600U, 0x21166a00220010e2U, 0x121e4ee0190000c3U,
  0xdc00e000f0007f17U, 0x11a200efeb0000ccU, 0x4a520000d00000a6U, 0x21006055e96e00U,
  0x7f39000088670000U, 0x1fc045480000U, 0xc70048e200U, 0xbe00a77f003aU,
  0xf00006a0000c100U, 0x9900da000000U, 0xb162001fb7db00d9U, 0x595ae02600e2d500U,
  0x4300002e301bc83bU, 0x3b004c421824547fU, 0xb24900004a0000U, 0xbb7fac00003d00U,
  0xc7005900U, 0xbf0000000000a4U, 0xe321004100000000U, 0x4c23005f00d200e1U,
  0xcfe90000f8e8e5U, 0x438310000497fU, 0x73000000cbf234d1U, 0x900000101bbb6667U,
  0xd4c7c6000016U, 0x7f69d10040e40099U, 0x63461c330035af00U, 0x4c9100002f8100U,
  0x2f2c00000000dd69U, 0x2800000014000000U, 0x142b1100a7005d00U, 0xc3004d4971cd3835U,
  0x3d30bcc0002c00c0U, 0x690045a2007f0000U, 0x700051dd00411b00U, 0xc38144454e003300U,
  0x89de000000U, 0xd100000000U, 0xe200cb002f810000U, 0x260000bfcb0000acU,
  0x592000000000U, 0xa0000015c5ba0000U, 0xcc00d600000000c7U, 0x377fb1000000ae00U,
  0x2300cc004e41001fU, 0x3800353100U, 0x7b0000dcbd000054U, 0x587f822520U,
  0x610092c1ad0000U, 0x150075b40000db00U, 0xc000210000U, 0xbe00000014003c00U,
  0xf2U, 0xd3000081caU, 0x287f1c5025000000U, 0x1000000000c500U,
  0xc001ebd2200e91fU, 0x430b00001000U, 0x6f00200000000000U, 0x3f0031000000U,
  0xc9000081cdb20000U, 0xabd800d6daU, 0x12526e3d0000e2U, 0x5a0000000000U,
  0x9100e7001cU, 0x240081a54c0cU, 0xda30001900000000U, 0x42007f00000000cbU,
  0x9f000000004800U, 0xd9870000d6000000U, 0xe200002e000000U, 0xaa0000b64c0000U,
  0xbe00383381c700U, 0xb100a172cbb90000U, 0x7f004a0000000000U, 0xe7bc0000d8000000U,
  0x1c00dcca3000U, 0xc5c9f50000000000U, 0xe200b7000000U, 0xb160e00020000020U,
  0x7f60c600000000eeU, 0x2400005a5a0000U, 0x271900377fb20000U, 0xb44cf2cfU,
  0x5b0000000000U, 0xea000000b30000U, 0x1d0000cf7f00U, 0x218e002a630031c0U,
  0x85c1005e00U, 0xa500000000U, 0xb2d00ebd8df36dfU, 0xdd2f003832000717U,
  0x3b0081e2e25f16f0U, 0x261536dc31000000U, 0x310000d800c32100U, 0x37000000U,
  0x3a00cd9d005500U, 0xdb48810000ba8dU, 0xc96f0041004ee500U, 0x45ef3ec4ec00cb36U,
  0xb500be764d1641U, 0x7f00U, 0x2d000000ea2c0076U, 0x640074358b3100U,
  0x422eb3e4c932acU, 0xd7217fca36651100U, 0x37c7002a4a0d007fU, 0xb20000d50000e7U,
  0x7500250000c9U, 0xd000c5d7ce00U, 0xea2400U, 0x1125337f002200U,
  0xe3e400242d00U, 0x3400282500dfU, 0xe600003e0000b5U, 0xc10083240026006bU,
  0x1f0048cf000039U, 0x48508b00008198cfU, 0xde00b5da000000U, 0xe41U,
  0x380000d5002b00U, 0x230000810043cebfU, 0x2e001400000008U, 0xb97f00000000U,
  0x8700U, 0x6bd87e2a006800U, 0x3c002fd900dff1U, 0x7f45004527d900e7U,
  0x5fe5d7cf2bbfd7f4U, 0x1a2c3a2200e27600U, 0xa000000dc2800U, 0x26004f0000001d00U,
  0xf000000d8810000U, 0x24d900003600U, 0xb48ca20000250000U, 0x3e0000U,
  0xd428ce00b400U, 0x7e8100004a0000U, 0x32300000002900U, 0xe400333a36a22c00U,
  0xea15d500c83b5600U, 0x7ff415000000U, 0xaa002bd2U, 0x3d1b0011d91536U,
  0x2e00df00007f5600U, 0x44e41696004600d4U, 0x25000000bc0037e4U, 0xcd17000033b10000U,
  0xef46d7cbd2006b00U, 0x7f000000251f0000U, 0x4000140000U, 0x64009ca31ec081U,
  0xf000434d77U, 0x915a000000c1cfU, 0x2c000eb9270000U, 0xc10eb6746d40000U,
  0xf61d003000c9c300U, 0x197f11434f2f6217U, 0xd50042e8000000b3U, 0x810000290bU,
  0x2100a453002a0000U, 0x7d00cf0000c90000U, 0xadc90000c90000c7U, 0xba7f00000000311cU,
  0x3cc3742800U, 0x221827003e71ba00U, 0x1a00004be22948U, 0xf3000000000000U,
  0xc0000d9006500U, 0xb68100c4ccd90000U, 0x37000ae800a47f3dU, 0x162f3dc81100U,
  0xbf9c00283cU, 0x250000d8d2e4U, 0x1398d7dbe7002600U, 0x9f81000028005800U,
  0xe0240000a1000000U, 0x2c00ef00f0ba00U, 0x810000ac4e31U, 0xaa00a888d52cb700U,
  0xd000U, 0xd300ccdce1eaba00U, 0x723300e100c52ecdU, 0x2600001cd60000U,
  0x5037818900000000U, 0x350040001b000000U, 0x281800383d00002fU, 0xa0d7a1b957c300U,
  0xc8107f0000000022U, 0xa2008700008f00dbU, 0xc6007a8100U, 0x8e00002d0000U,
  0x6200000000U, 0xc000000000e6U, 0x64000000b914e71aU, 0xe200005200000044U,
  0x3c0d8100d70000U, 0x380000472800d8U, 0xedd6e712e90032U, 0xac34270043cfe1U,
  0xdf00231781bc12U, 0x9e15db40b6eb3e4aU, 0xdbde3d2727360000U, 0x38007fdbc5000000U,
  0xcee00028005300U, 0xcd930000cd00e500U, 0xe415f31d7fd3cfU, 0xf7e60000b05b0000U,
  0xd0d9000028320000U, 0xf3c9cc000000d4baU, 0x265b973131U, 0x128fe610ea2800e9U,
  0xbbf100001b890000U, 0x8100d83ea5e01500U, 0x3000f6d600000000U, 0xe0548100ed0fdc00U,
  0x58002a00000000U, 0x190000000000deU, 0x8100f1e4f300edd7U, 0x160af40019001d0bU,
  0xf7e445e6f400c8U, 0x27ee12001a2900U, 0x2be2U, 0x4f2181e60000e4U,
  0x3f00bd000016342dU, 0xc200e10000c100U, 0xe5002aU, 0xf300U,
  0x81d400U, 0xdf00ea0000U, 0x2600000023af2832U, 0xe8862fd200000000U,
  0x28c2ea001440U, 0xe5d500e7ae81d300U, 0x2200000ae000U, 0xe600812100170000U,
  0xbe00c3f1e223U, 0x1f13f5e50000d800U, 0x4d0c000000U, 0x7f1835000000ecaaU,
  0x1cce000000000000U, 0x5300f4003e58U, 0x1b003800c2de0048U, 0x857200U,
  0x5155af00813b1500U, 0x4d0000be58000000U, 0xffffe513fffffb0fU, 0xfffffd7b00009a78U,
  0x2d7200002741U, 0xfffff8a7ffffe705U, 0xffffedd60000041eU, 0x26bdffffdce0U,
  0xfffff9a0ffff877cU, 0x136ffffe33aU, 0xfffffa980000c795U, 0xfffe363bfffffedfU,
  0xa0fffff8a9U, 0x41d8fffff9a7U, 0x3b2fffff545U, 0xffff488affff411bU,
  0x384fffffb48U, 0xfffffe0dffff1646U, 0xfffffc6f000001a5U, 0xfffff0d7fffffcf3U,
  0xdf4fffff18dU, 0xffffeb6200004a55U, 0xfffffe38fffff8a0U, 0x10c9ffff1868U,
  0xfffff00e00000416U, 0xfffff5c6000008e3U, 0xfffff510fffff09eU, 0xb9900000ebcU,
  0xffffdcb600000805U, 0xbf5fffffb37U, 0x28600000ad8U, 0xffff24f0000006b8U,
  0xfffff0f4fffff6c1U, 0xbd1ffffd372U, 0x3f9dffffebb6U, 0xfffff15dffffff79U,
  0xfffff858ffffe6abU, 0x29ee000000f3U, 0x1ed2000006f6U, 0x697000026b8U,
  0x7aefffeedb3U, 0x296fffffdedU, 0xc530009d0dcU, 0xfffff4cf0000017eU,
  0x5e9ffffee77U, 0x7afffc6208U, 0xffffa450000003d5U, 0x29bf00013176U,
  0x1f200000870U, 0x37ffffb584U, 0xffffe8adfffefd64U, 0x6a8ffffffc4U,
  0xfffff00affff4e89U, 0xfffff8f8000019f4U, 0xfffd488b00001210U, 0xffffec840000052aU,
  0xfffff8beffffeeacU, 0x8a400000d0cU, 0xffffff92fffffcc4U, 0x949ffff154eU,
  0xfff905b8fff98ae6U, 0x2dd0ffffffdfU, 0xfffff306fffff9ccU, 0x4228fffff5ebU,
  0x354d00022ae0U, 0xfffffca7ffffe236U, 0xfffff58c00000ea5U, 0xffffed4900000706U,
  0xfffd48f300000054U, 0xa3bfffff57bU, 0xfffff93000000962U, 0xffffe1f4fffff029U,
  0xffffe593ffffc2a3U, 0x27efffff854U, 0xffffd0230000158cU, 0xffffda890000065aU,
  0x154c00000355U, 0xecd0000049aU, 0x18d00002b1bU, 0xffffcf96ffffef89U,
  0xffffff0000001a75U, 0x1113000011bbU, 0xfffffed2fffffdbeU, 0x719fffe283dU,
  0x29d1fffffec2U, 0x20e600070549U, 0xa1fffff019U, 0x125000006d0U,
  0xffff0713ffffe4acU, 0xfffffc3a000016a1U, 0xd200000d7dU, 0xffffe771ffffe5aeU,
  0xffffe4c1ffff00ffU, 0xfffedae5ffffe074U, 0xfffefcfa0000000bU, 0xfffff26cffffe8c9U,
  0x15d0400000fecU, 0xeeafffff289U, 0xe113f0de40cbfc2fU, 0xbc35dc42a9aa09b6U,
  0xa814eb4cc5e1d301U, 0xe7f01519ea487f81U, 0x1823811b7f2c167fU, 0x817fc781e7b5c3a1U,
  0x41b8e6a4e946e85bU, 0xe9e3dd3adbe39ff4U, 0x710d2f30efb41710U, 0xee368cf3a33194b4U,
  0x897f8138e338837bU, 0x7fd81a1b814bc01bU, 0x91ab2ba66199f04aU, 0x8181dfe67fdf5fd5U,
  0xd681ba717aba2395U, 0x3d6d781bfecf717U, 0xdfbf06c1c8a3c981U, 0x81e9e57f1aea49f3U,
  0x14607f8eccd56363U, 0xfd99dead7f81d4e9U, 0x1606a7819beddbedU, 0x7fc6dde3d318ba6eU,
  0xd67fce0cd90111d5U, 0xf1335cccd36acfe6U, 0xc327402708b5d000U, 0xf8869d7f1a7ffa7fU,
  0x4e81a9eb791c04fdU, 0xd6f064b91e9b9b90U, 0xd213ea8f252ae1dcU, 0x4d058ab0814eb923U,
  0xb8cad8b68302fd19U, 0x81a4ffd59033f2a1U, 0x60f0cc6813c3081U, 0x8306b0d89f2fd24dU,
  0xebeaa7237f2d0555U, 0xed0281f11540bce9U, 0xcfa07fd9670ae72fU, 0xb7f18b2fac101518U,
  0xee1dfb7fa9669862U, 0xacc48169bdda8100U, 0xe5c8ebd12e0581efU, 0xb22d7c93e968c99fU,
  0xaaac87db30b1d96eU, 0x8a2f04fb0030c56U, 0xedfd0ec990cbf6e2U, 0xcd1162aff17d7c4U,
  0x7fd359f17af5a57fU, 0x760218ba1df2cd09U, 0x7f0ffd2f7f9ae844U, 0xf19fb814e822811eU,
  0x7ffc7fb4231049d8U, 0x91edd3a9d6e2a9a4U, 0x59ffd2b83a3e7fd6U, 0x1a1d7fb5057fc5b7U,
  0xdc81c49be53d11b0U, 0x98ce81e702b34899U, 0xb17f98f1b9fff6efU, 0x811781098541fce3U,
  0xe5f26c3b57707f7fU, 0x3819dfce772efb9U, 0xcfc738819534c3e1U, 0xe40ff503b53dce4bU,
  0xbc09c25ff7a48deaU, 0x3cb02e3abdf5d696U, 0xe07faaf48173d0a5U, 0x5e81b5aa6671a891U,
  0xfb8bcced65fcbc31U, 0xcbffc6f1a586f90fU, 0xb2c7dbba81dba7c3U, 0x9587814ae82ddb81U,
  0xeebd7fef5af2f9b9U, 0xb603077f41e475e5U, 0x89b3ef81bb317f23U, 0xe0e1e437e2d3b324U,
  0xc6930e19ce81f824U, 0x81a356adea7f21d4U, 0x4d219f7f4fd90d56U, 0xb771be3f68e31b01U,
  0x9f0b810b57f3023U, 0xf377dc2149988df4U, 0x49afdfcfb896e528U, 0xb181ec1ced2be281U,
  0x82e6417350f0215U, 0x4ec55ecac007fed4U, 0xef34af8c7581fabcU, 0xc7d3be046086aeefU,
  0x53ac2d0debd150d5U, 0x180342bb1f7f8681U, 0x1cad4ee721942fdcU, 0x1da0bdebe71dfa2eU,
  0x38108fcc3488cdaU, 0x81d7dfd126ef06eaU, 0xcf1fee211b7fb8e3U, 0xe03827feb2c7f5bU,
  0xf59c8bf3d200f08aU, 0xb6f709b74e5b1e9dU, 0xc71d1ee6c9015cf5U, 0xc88e7f1b7ffca400U,
  0x1a2018ecbc3e0aedU, 0xc8c02ae901d5b34eU, 0xdb4d0a9afff7f2d7U, 0x6a312b2789005a2eU,
  0x24fd067f05d00fc4U, 0x8db10a81cdec81c2U, 0xe8e57fd91b810543U, 0x550afb4048530318U,
  0x32001781dbb1f9a7U, 0xe6c6d3da35e0dbf5U, 0xdefbd3cd2e990bc4U, 0xcf26f3d3b820eff7U,
  0x35014f13a85db732U, 0xdcbbfb2bee1bfd3bU, 0x4e97fdc5205f214U, 0xeefd0190ac0d1ad8U,
  0xf6dffd371a9d151eU, 0x10d21413f5450724U, 0x8fa3ade4c3427e7U, 0xf313a14803ed55c2U,
  0x35af06814f01bb09U, 0xdbc1eff615edd381U, 0x2fcf505b1c7f2b1eU, 0x9b819843b3d38fe7U,
  0xf7efd2aef50972b1U, 0x42b453c9039ceb50U, 0x7fa8ff89da7fe5dbU, 0x81ab002f99e5f706U,
  0xf5d620e37f020081U, 0xfde2b2c2f5430a81U, 0x81650a2d2123c7f3U, 0x98613bb5db69b0a8U,
  0x81ffb7f761e00522U, 0x4cb2d77fc31c063cU, 0x8181bd8bfea1d1c1U, 0x26587fdcad7f7122U,
  0xb015bb1ec481d82dU, 0xee82eafe7f27076cU, 0x493f2d12867f2ab3U, 0x6498f3bb4cebccf4U,
  0x8101c57ffe9c94f6U, 0x19ba3581e0caac49U, 0xd581ad2af950cb81U, 0xf6c53f06d2ce7997U,
  0xc2ef01f272f426d3U, 0x4afbe46f21cff6c8U, 0xcffa81831558177fU, 0x7fa40523cca451ebU,
  0xdbc5f17ff3d00254U, 0xbe7f06e9543903d6U, 0xebefc8b54f9e38e2U, 0xb7e565f5c2588181U,
  0x7f09b018d7547f22U, 0xaf814e5c3ce5d972U, 0x5b4e8bc27ae77f52U, 0x24fc7e7f2d7f7ff7U,
  0xc2c8b907767fe523U, 0x62c9ecdcdf7f817fU, 0xb876c3b724ff717fU, 0xbb509c7f08ba87dcU,
  0xd1cd81cd0d787ff3U, 0x367f40d5bf77f327U, 0x8e07c37fe8d0c7ebU, 0xdb47219dee815981U,
  0x36c9ffbe817f7f81U, 0x8c1d7f5dc0b28182U, 0x9808996067dd2ad1U, 0x2b81a036c07fff1aU,
  0xe15dde37a6f60b28U, 0x96ed81d10e7f240bU, 0xd981cbddd75c6001U, 0x409dccfe089344c0U,
  0xd04d3a34813e11ecU, 0x2f7d81817f7390f0U, 0xeefdfd5028eb22c0U, 0x2ff3211d1f96d0d8U,
  0xa07e2e94932e09aU, 0xb34ded0b5033ef60U, 0xfff719dd3df83242U, 0x30c282d5f682bdfU,
  0xabd4028dd9fdaa47U, 0x6cf1f305f1fcccc9U, 0x9c250eda992b7f25U, 0x1b0f2a3253e00701U,
  0x81a103d6fdc5cc35U, 0x33f1e100c0fbf7e7U, 0xfe11011489dbbfb7U, 0x9c5c818d81c501dbU,
  0xfb46dd060c625693U, 0xdb81ef2ecaf29581U, 0x81f1f00b04e67feeU, 0x18f3d80f81f50de0U,
  0xe72be037bc7f9310U, 0x8981af007fdb1019U, 0x47ff5d42bd5f374eU, 0x31b717019fd7faacU,
  0xa23586c592bf7f81U, 0x4d00a7d046452793U, 0xe981be60cf260bedU, 0x9df6d2200cf89be5U,
  0x9de97f3e2c3711a3U, 0x2e3bb74f7f7f40c3U, 0xa183ae817929f534U, 0xca2948dc7febccfaU,
  0xd61ac77a2f3dc237U, 0x68e2184acadaefc9U, 0xd8c0f2181c72016U, 0x8d831fa192e7f7fU,
  0xa43dbff27fd19a7fU, 0x8117cf0ae458ac25U, 0x81f4aa1cc630eecbU, 0xd5cdd9c94fbb81c3U,
  0xba232d51c6043f9eU, 0x2494a8cbf027b9dbU, 0xaeb1810e5af6d77fU, 0x1382dec9dd755b0U,
  0xf367b5677f4e8116U, 0x81d49dc71fc88105U, 0xffffe5d6ffffc5f7U, 0xffffeb86fffff50eU,
  0xffffeb8500000e0aU, 0xffffd230000006d3U, 0x23ddfffff6ddU, 0x20fbfffffc35U,
  0x669ffffff8cU, 0x735ffffe805U, 0xffff32100000148cU, 0x4100000b80U,
  0xffffec5afffffbe9U, 0x4dc000008b5U, 0x57c000011adU, 0xfffffe9c00000013U,
  0xffffffa4ffffe7ffU, 0x331dffffff6dU, 0x1fcefffffcc2U, 0xfffff1b0ffffe7ddU,
  0xffffeffefffffd97U, 0xbeffffb205U, 0x2deeffffee4dU, 0xb8affffffb1U,
  0xffffffeffffffc62U, 0xfffffa49ffffde60U, 0xffffd81d000012a5U, 0xfffff319ffffaeb9U,
  0xfffff720fffff7fbU, 0xffffe48600002240U, 0x24fd00001d1bU, 0x22fffffefdU,
  0x1c27fffff394U, 0x265bfffffdabU, 0xffffe132ffffef26U, 0xfffffc8500002107U,
  0xffffea88ffffd82dU, 0xfffff7f10000171aU, 0x93300001f83U, 0xfffffa39ffff9735U,
  0xfffff62affffffdcU, 0x1f1effffed2fU, 0xfffffaf2ffff81d8U, 0xffffd29effffc4acU,
  0xe9cfffffe59U, 0x35a9ffffffa7U, 0xe30000016aU, 0x2d65ffff83f8U,
  0x157afffff439U, 0xffffa655ffffff55U, 0xffffffdfffffff9dU, 0xffffc2bcffffcac0U,
  0xfffff56d0000002dU, 0x319800001366U, 0xffffffe8ffffda1fU, 0x7c6ffffe731U,
  0xfffffd2cffffed98U, 0xffffe94bfffff9faU, 0xffffc4feffffb6e8U, 0xfffff7b7ffffff49U,
  0x380000014aU, 0x9a400000e15U, 0xfffffb78fffff85bU, 0x27e2ffff9bb4U,
  0x1078fffff4c2U, 0xffffb70f0000017eU, 0xffffde3f000038a5U, 0x839ffffe90bU,
  0x59ffffef31U, 0xe99fffffbbfU, 0xfffff7cfffffb21aU, 0xe1ffffed8aU,
  0xf20000012fU, 0x20c000000c2fU, 0xfffff876000015f1U, 0xfffffc6cffffe902U,
  0xfffff55dffffec5eU, 0x1b76ffffd394U, 0x369affffe668U, 0xfffffd1900000898U,
  0x35c00000cd0U, 0xffffd3f3ffffee42U, 0xffffe393ffffff9bU, 0xfffff105ffffffd5U,
  0x2b93fffff8b2U, 0xfffff4df00003d9eU, 0xffffb68000000c77U, 0x25efffffe7cfU,
  0x44ffff9f9aU, 0xffffe0db0000151dU, 0xffffd70bffffd109U, 0x90cfffff6daU,
  0xfffffd3affffff7eU, 0xfffffff10000000fU, 0xbffffe8d3U, 0xfffff119fffffa77U,
  0x140f000001deU, 0x1261000013e5U, 0x2a3300de67390050U, 0x30eb0000d6a34a00U,
  0x220000c9dd0010a2U, 0xd9000000dc00U, 0xc6e40000004acaU, 0xf60000U,
  0xa200000000ea00b8U, 0x8390000U, 0xd7e697097c220000U, 0x32150000000000c0U,
  0xe600000000000eU, 0xe9ee0000001c0000U, 0x360000edaf00e3daU, 0xa0004431U,
  0xe300ecdd00cdddU, 0xe2b8d2004c00002dU, 0xb100db00003700b3U, 0xd30000U,
  0xc800a400008cb500U, 0xf4eeU, 0x81d700e6e40043U, 0x27f300d9d4f7U,
  0xd0000f7dc000000U, 0x7f47600000008U, 0x350e37003b37ab64U, 0x2cd7a5cc3500U,
  0xa10000U, 0xda0ee7000015U, 0x9ce30000b8be0f00U, 0xce2d0000bd0000U,
  0xc21413470000d04cU, 0xda003af600U, 0xdc00000000ebbfdcU, 0x3a331100001e2cU,
  0xaa000052d300000fU, 0x3cd1bc0000adU, 0x200081000000f000U, 0xd400a700b32857U,
  0x39ebf53d1c00c9U, 0x9c2000046b80945U, 0xbea5f24f00a60000U, 0x3700004c0000daU,
  0xe54d8edd184dU, 0x2200260000e10fU, 0xf8d3b10000e00060U, 0xc400000000009f40U,
  0xe48000000U, 0xef13000000001100U, 0xcb001a000000c0U, 0x2a8f00000000e3U,
  0xd40008000000U, 0xa1f7aa0000e85111U, 0x6200000000491b00U, 0x1c000035110000U,
  0x2e11d7b5003846f2U, 0x61000032f61800U, 0x4400de152b001649U, 0xcc00dff9d6000092U,
  0xd44531cecee02317U, 0xf40000181a0053U, 0x13547f0000f6e2dcU, 0xf800502d234415d9U,
  0xd4000095001d00U, 0xce3edca000f900U, 0xc84000000a73e700U, 0xe30d005900005a00U,
  0xeb000000680000eaU, 0xf9006c331adad600U, 0xb49d1b0000U, 0x48000000eaf40700U,
  0xdac76cebef582100U, 0x370000f600U, 0x14c1d5e1283a00U, 0x2100f01f32ce00d2U,
  0xc9000000ec0000e3U, 0xf30018U, 0x7d71ed02cb61defU, 0xd7f2dc0000003900U,
  0x29de00b40039a5U, 0xfU, 0xbd00001600e53000U, 0xeecbf30000001fU,
  0x390000c30f00cf00U, 0x4213000059004d00U, 0x2af04f00d5000000U, 0xac160000b40000U,
  0xee28f400e9be12U, 0x61d2cf002af900U, 0x2081dcb9U, 0xe50000f5ed00f7U,
  0xeb0000c90000b2U, 0xf2d83d5a00U, 0x7de5500000026f4U, 0xdc10000028f05b8bU,
  0x614000bc7000c00U, 0x200000000000e500U, 0xe5c2d0df0000f0U, 0x1016001152e3c7b9U,
  0xcecc2a002c000fU, 0xdd004400eceb0020U, 0x4a27db00eaU, 0xec00d5d8f1003700U,
  0x240000a33d13d7U, 0x1eee00f517U, 0xcad62d16ca0026e3U, 0x24b0f60000e2f0U,
  0x3f07c0d700000000U, 0x2313000065172000U, 0xf2ee17U, 0x2c7fdd0000U,
  0xcc25eccee9e400U, 0x3d00dee1000000U, 0xbe110000a90000U, 0xe1de0000bec80000U,
  0xc800a32a3aef00U, 0x8f400e4f03b5200U, 0xa00420000130000U, 0x180008292d36c2U,
  0xaf6beda0000U, 0x1700009d11d8eee6U, 0x2615001ece003330U, 0xeb00001100c79fbbU,
  0xb2007f0ff100ed00U, 0x55183e0000460000U, 0xd02400222500f31fU, 0xa872000c10ed42U,
  0xf700000039000041U, 0x2bf11800f02ade00U, 0xd000004c00006eU, 0x2f0c00004247U,
  0xd8ab2e4c00b800U, 0x90034c00bea00U, 0x20cf00004c00U, 0xc00d53f00000000U,
  0x2c00f465da1400U, 0xe844b600ef0008ecU, 0x3d00005200000094U, 0xecbf27001b00U,
  0x4e28c70000cbU, 0x1700ddd1f11fU, 0x7a10070000U, 0x340000003f3fU,
  0xf759e215494d0000U, 0xe3c5d6000020f500U, 0x1ccca7cca7103000U, 0xe500003032c081c7U,
  0x9345da00e0000c1cU, 0x4b1b650000000000U, 0xee10002f1b00e62aU, 0xe9f00000000393bU,
  0xd42900bd3500e0U, 0x2c00006db000a611U, 0xef00560099002cd5U, 0xeee30a1500001fU,
  0x591100381254ce10U, 0x19000000e5U, 0xd6d81d0d29111853U, 0xb7002d00d815U,
  0x2c0010f9300ef400U, 0xef650000e3000000U, 0x510028262ad00000U, 0x1400ed0000001cU,
  0xc0000cc4000b1U, 0xf400dd00003200U, 0x230bf300U, 0x1754005932U,
  0xd915002724000000U, 0xdf00be3a00eddbU, 0x1800004c00U, 0xdef6173200d8c200U,
  0x2600f700f900U, 0x1707150000000000U, 0xc11708bd2ed300e2U, 0xce2700e8004ed8U,
  0xf1000042da000000U, 0x3ed1dc3c0000U, 0xf7c22d00e3000aedU, 0xe500000000000042U,
  0x360000e100000000U, 0x70000250021d8U, 0x230000003210U, 0xe00e00d5f2243fU,
  0x191010004af4003bU, 0x34dd0000120000U, 0x191d32cc0f9cU, 0xb60000f0d30000U,
  0xf500e500000000U, 0xd100006500U, 0x471fe7fa0016U, 0xc2002700f3007f00U,
  0x9411e29c2000000U, 0x3900100000e30000U, 0x1023220000ef00U, 0xe90014e6bc000000U,
  0xf700fa16U, 0x2d060000000fe900U, 0x2200f3000055d22bU, 0x2900ce00U,
