/**
  ******************************************************************************
  * @file    soh_model_data_params.c
  * @author  AST Embedded Analytics Research Platform
  * @date    2025-12-02T01:52:41-0600
  * @brief   AI Tool Automatic Code Generator for Embedded NN computing
  ******************************************************************************
  * Copyright (c) 2025 STMicroelectronics.
  * All rights reserved.
  *
  * This software is licensed under terms that can be found in the LICENSE file
  * in the root directory of this software component.
  * If no LICENSE file comes with this software, it is provided AS-IS.
  ******************************************************************************
  */

#include "soh_model_data_params.h"


/**  Activations Section  ****************************************************/
ai_handle g_soh_model_activations_table[1 + 2] = {
  AI_HANDLE_PTR(AI_MAGIC_MARKER),
  AI_HANDLE_PTR(NULL),
  AI_HANDLE_PTR(AI_MAGIC_MARKER),
};




/**  Weights Section  ********************************************************/
AI_ALIGNED(32)
const ai_u64 s_soh_model_weights_array_u64[8904] = {
  0x5ffcfc8177b0007cU, 0x81fe8100a179fd81U, 0xfd830103000000ffU, 0x26104ab7d819e7fU,
  0x7f8d01b501038103U, 0x2017f5f7f0102beU, 0x8b648104b7050303U, 0xfffe7f9700815b71U,
  0xfbfb7cffff7fffffU, 0x84ff9b7ffd7ffb66U, 0x10305938e97667fU, 0x7f7b5d8105b47f6eU,
  0x9eb700b87084feffU, 0x6e81afa98100667fU, 0x5ffa81fca701026cU, 0xfbfafa0000000000U,
  0x527f007001847f9fU, 0x16f0064b74f8152U, 0x529ffc607bfb8181U, 0xff9081ff4581fdfdU,
  0x81908a6fffff017fU, 0xfe70fefd7fff8a00U, 0x7f01fbfb81fdU, 0x81fdfe814aff9201U,
  0x7fb0fdfefefcfcfcU, 0x6e457f03830607U, 0x7cfb81fa926f8981U, 0x9581fd5390a6017fU,
  0xffff81fdfe86fdffU, 0x747f01fefe7fU, 0xfeffff6600ff737fU, 0x155fefd7f98fe7fU,
  0xfbf972817cff7f00U, 0x71810000000000faU, 0x7f016803a9000101U, 0x8168fd81f8fafdfcU,
  0xff00000000004f87U, 0xfea4fdfe66ffff7fU, 0x366810101020181U, 0x30202b77f818e69U,
  0xfffffe28fffffe70U, 0xfffffec7fffffdc6U, 0xfffffef1ffffff1dU, 0xfffffda6fffffda0U,
  0xfffffe1bfffffe83U, 0xfffffdc4ffffff15U, 0xfffffeaefffffdf5U, 0xffffff38fffffb8bU,
  0xffffffc9fffffe58U, 0xfffffde6fffffe2fU, 0xfffffec2ffffff12U, 0xfffffd2ffffffe12U,
  0xfffffd70fa5a4100U, 0xfffffe28ffffff8eU, 0xfffffd3bffffff22U, 0xffffffc80000005fU,
  0xfffffe12fffffe06U, 0xffffff06fffffd17U, 0x23fffffdebU, 0xffffff13fffffea5U,
  0xfffffd0ffffffff0U, 0xefffffde6U, 0xffffff58fffffe8cU, 0xfffffeb5fffffe3aU,
  0xffffffa3fffffeddU, 0xfffffe19ffffff78U, 0xf8d3a588ffffff48U, 0x80fffffe72U,
  0xffffff2affffff2aU, 0xfffffe82fbb3c600U, 0xfffffbe3fffffe93U, 0xfffffd79fffffdf6U,
  0x91000000560063aeU, 0xa190c5493ec458U, 0x42ac560000005600U, 0xa500ac00c70000U,
  0xc596000000U, 0x560066516e4293bdU, 0x4600a6ae000000U, 0xa50000a5c1006e3cU,
  0x3e715b9a00U, 0x3e5c540049000000U, 0x588b9800b45c0000U, 0xc400005000009800U,
  0xb0a7006d004c95U, 0x4200004156009500U, 0x830000990000005fU, 0x53006ec3004e8600U,
  0x5fb94a00000042U, 0xbe9f000000b50000U, 0xa10052000000b500U, 0x9e85af000000U,
  0x5195993d009a00U, 0xb7004e9ea70059U, 0x46000000bf5e9a48U, 0xc10000ac0048U,
  0xa1000000a0b90000U, 0x390000b597b400a4U, 0x494eb400aa588dU, 0xb245bca600006900U,
  0xb953b14700b16500U, 0x5f006999009d0000U, 0x8fbeb7a73cc191U, 0x91c7003b0000U,
  0x5a0000004300U, 0x3a5e51000000583fU, 0xa2440000bb4bU, 0x604c005000a09b00U,
  0xb400babf000000U, 0x3992a400b5473eb0U, 0x94005c000000a300U, 0x590096005e484e00U,
  0x3b0000700000a9U, 0x9b000000aac40044U, 0x858aaa009c0000U, 0x905b440000abU,
  0x6cb400c2900000c3U, 0x9dc300009b60U, 0x60bfc587000000baU, 0xa241a700c00040U,
  0x62ac00bc00U, 0x85003e0000663f4fU, 0x42a1b6904e950000U, 0x97009d6100U,
  0x8b005bb645c0984fU, 0xbe000062000000U, 0xb00000U, 0x3f9584000000009fU,
  0xb5a600008c004fU, 0x564100c29800U, 0xbc5600598fU, 0x8900494e000000U,
  0xbc00c75e58c2b2afU, 0xc6ac009d940049U, 0xac4d00006dU, 0x62c5c1b5a8000098U,
  0x60930000005000U, 0xa500000000005000U, 0x586cc000005eb500U, 0x933caba2000000b9U,
  0xb200b8005100a5U, 0x63000000000044U, 0xb83f00b800U, 0x460000004c40b500U,
  0xa90057c5b5c754U, 0x4d009da2000000U, 0xb70000c2b500U, 0x8c525c64005200U,
  0xa4450047008bU, 0x410000ae00a800b3U, 0x9cc7009b0000ad9eU, 0xc700b45f008ba9U,
  0xb10000be500000U, 0x9ec7836300b75dU, 0x823a83b900006cU, 0x4a000000000060U,
  0x4488be810000b43cU, 0x46b55d5500004ca0U, 0x4000000000920054U, 0x4ea10000000000U,
  0xa00000449b00U, 0x574787ab9d00U, 0x88b79d4888006100U, 0xbc67000056000000U,
  0x61bf3cb8008cU, 0x5b00000000b90085U, 0xb945b5006090c2a1U, 0xc7bf605a958b00b4U,
  0x42c1686059a9U, 0x4043000000005991U, 0x9a0000006bU, 0x420000004500b3U,
  0x4c00a7000000a1b2U, 0x5b9eb6000000U, 0x3a5d0000a538U, 0x4c9c00588c008d6bU,
  0xb93e000000000000U, 0x3f4300a7000000adU, 0x91865700004aa465U, 0xa39862a2007100U,
  0xb3000000b300U, 0x9aae0000006fa3U, 0xb500003e4d525dU, 0x49003b4a4b545b00U,
  0x605f005400007090U, 0x6691b70000bd0091U, 0x5bb400000000adU, 0xc00000943ca14fU,
  0x656f00005c000000U, 0x4e00005d00bdU, 0x99c44f0000afc2U, 0x40970000005cU,
  0x9000006f000000U, 0xaf000000b4635700U, 0x95490000a59500adU, 0xa000bba60092b6U,
  0x610000529b4f0000U, 0xc5a400005b005c8eU, 0x943e004d00c640U, 0x889440c6b7a20051U,
  0x4900a3009c00U, 0x39008500U, 0x57829c00a90086U, 0xa20088933aU,
  0xc3a3003c61c70000U, 0xc1000000443eU, 0x92ae0000U, 0x8b575f00570000U,
  0x4561986500c000U, 0xbc000000c667bc6fU, 0x9d3c945554006300U, 0x66493a009400U,
  0x8e00c6a8bfa30000U, 0x430045bc60000000U, 0x6600a74e8c4000b8U, 0x89009aU,
  0x5782880000000000U, 0x8800486200004600U, 0x4a0085bc000094c4U, 0x92aa979b000000U,
  0xa7000000003b0000U, 0x39b38e0083859851U, 0x8400c392bc6bc3U, 0x81003e003a459f00U,
  0x46009d0093aebb00U, 0xbb00009b008800U, 0x4700464100003fU, 0x5600008a000000c5U,
  0x5bb100a9005700U, 0x5900ab90b9c144U, 0x900000003e00U, 0xac003ebb0000U,
  0x45455000c2003c58U, 0x57a8c3000050004aU, 0x580000U, 0x40ad630000539eU,
  0xa1b2513a00U, 0xc10000a9a7a200U, 0xa4b79a829e00a500U, 0xbe0000390067c400U,
  0x393b0000004f00U, 0x558f0000000096U, 0xc10000004648b3acU, 0x9e9e5ab8505d0000U,
  0x8e000000c500U, 0xbd914a00ae4481U, 0xa7005200U, 0xb60000c3000000b7U,
  0xbc003d6c4cU, 0xa4003c005d9e96U, 0x595900a60000ad00U, 0xbd00000000U,
  0x8d4b006600c00094U, 0x614b93b500964dU, 0xc400000000U, 0x4c000000a10053U,
  0x4000000000000000U, 0x500000585300b1U, 0xb45200504c40a7a2U, 0xaf00a800000000U,
  0xc00000006b4aa7U, 0xb40000000000U, 0x60c5000087af0000U, 0xc061486600009bU,
  0xc3480000be616100U, 0xbb00a600009200U, 0x3f0091008600U, 0x5c0000005a450092U,
  0x930000006940af00U, 0x9f6100713fU, 0x9184005c0092a8bdU, 0x60000000c100006aU,
  0xc5000000996d00U, 0xb700005f0000U, 0x4900650093680099U, 0x9d6f680000463c00U,
  0x9dbe78525200U, 0x8800b6c2ac4d00U, 0xa4c04500b85bU, 0x636e008baeafU,
  0xb7003cb700b99a82U, 0x4d00c1ae5a7b4bbdU, 0xc25a0000003e00U, 0xa0008f00006b543cU,
  0x4167004456000000U, 0x87003d0040005f00U, 0xb1af3e0000000059U, 0xaeb2950000000000U,
  0x67996a00758e4566U, 0xac0000a8009a00U, 0xaa00U, 0xaa620065b2bf0000U,
  0x3d6200004a009f00U, 0x4ec40097900000U, 0xa5000000954d0000U, 0x42004b909200U,
  0x960060005700aca7U, 0x8cb4460000006100U, 0x60590000009bU, 0x98003e000066U,
  0xc00000006000b100U, 0x9dc50063000000b5U, 0x994b8f003b5e00c3U, 0x5f009d00006500U,
  0xa9500000005900U, 0xa400006652005500U, 0xb9428f0000000000U, 0xb3a5adbc000052a5U,
  0x8c4d000054ab0091U, 0x9900430000009eU, 0x42005100004b968eU, 0x58008bb2c1955800U,
  0x440000b69f470000U, 0xc4bb006200af0000U, 0xaaa367004d6c00aaU, 0xb40000000000c3U,
  0xaa0000af5b520066U, 0x64009700b90056U, 0xc500000067a800U, 0x849a00006f003cU,
  0x84005a9400570000U, 0x954c0073008263U, 0x68c000b70000bd00U, 0xbb0000000054U,
  0x57000047009b62U, 0x5fb54149614d00U, 0x898196a49d008800U, 0x53af000000U,
  0x4b8b00bbb464U, 0xac00005a0000b5U, 0x5f405000a6b100U, 0x4000bd8d0000b974U,
  0x42000000b589008bU, 0x960000b800590042U, 0x8c49005a00004453U, 0xa0c13d0094U,
  0x510000a800ae004fU, 0xb35d940000009641U, 0x9d0084008e000000U, 0x455900640000b8U,
  0x6900918649c30058U, 0x4e0000bc004f00U, 0xb7000000484500b7U, 0xb1004600U,
  0xc1bb0094a20000U, 0x7446bf5200000000U, 0x880098U, 0xab9eae5f000091a5U,
  0x9200a79fa000U, 0xba4500a600U, 0xb70000000000U, 0x4b00750000000000U,
  0x45000054000045U, 0x4396b0006b0000U, 0xa54e00b3U, 0xaa0000a4645eU,
  0xbe678f6c44a10000U, 0x915c000000U, 0x5b00000060000000U, 0x6d00006cbd570000U,
  0x5400005700670000U, 0x950000470000U, 0xb400000000000074U, 0x5000000000afc400U,
  0xad008c89000000U, 0x5c0000b0U, 0xac9000c000U, 0x950093000094b000U,
  0xba0000000000b8U, 0xb500006300000000U, 0x713e0085ac00U, 0x5094620000ba0000U,
  0x8f97000067U, 0xb800a800003f5751U, 0x5a00000000ad00bbU, 0x9d6d4200000095U,
  0xac00006baf95U, 0xa700U, 0x7e6900a38c9562a0U, 0x4d004ba600c1b48bU,
  0x6f4100007a000000U, 0xb50000ac00008300U, 0xa49d00aec4005ea4U, 0x4da900c200U,
  0x61515b000045005dU, 0xb8008e934f00U, 0x6cb500bb004c003eU, 0x8cb20000a60000c3U,
  0xbf0000005800005cU, 0x650000b500U, 0x8c590091007355a8U, 0xc46000c456005300U,
  0x6c4555000091U, 0xa80000a2009c0000U, 0xaaba5857005500U, 0x6094005800b6U,
  0x9500000000000046U, 0x3b000000446200U, 0x7300005bb43c00b8U, 0xc5a9004e8f00aa00U,
  0x9f9aafac625fbcU, 0xc4005100000000U, 0x54c459008c0000U, 0x604e000096000000U,
  0x9800008c00b100U, 0xb8bdb9008d0000U, 0xa4ad00b8000000U, 0x3ca20000U,
  0xaa680058a7000000U, 0x94706000720000c2U, 0x3e000000000062U, 0x8400005d999c59U,
  0x60b70000a7U, 0x4e00003fc3005c44U, 0x989a6a004ea7009fU, 0xb944000066b900U,
  0xbabfab87000047U, 0x519f00008c8eb0U, 0xaf57528cb5aa74U, 0xac005a00008e5d00U,
  0xb7550000493fU, 0xa9aac5bd0000U, 0x850000009e850000U, 0x96000000b945bbU,
  0xa14b69ac005ac600U, 0xba00b163000000U, 0x5a8900c000870000U, 0xb5a000b368bf0000U,
  0xa13a7ec346564d00U, 0x5c00000000b5b300U, 0x54b1b200985a93U, 0xc600005f9a5a44aaU,
  0x5300926d000098U, 0x9000000000000048U, 0xb9bcU, 0x6d4d94c4b8510000U,
  0xa360b8U, 0xac9800003e47513dU, 0x56000000bfU, 0x45ad3e006aU,
  0x4db9b2008cU, 0x6f00b9006ea20000U, 0x42004d00a5b7U, 0x5e00009f9f0000U,
  0xa700a60000535cU, 0x51003c3daca50000U, 0xa9a80045483c0000U, 0x8e740055004800U,
  0x3caf499a00U, 0x6c8c000000a68d3fU, 0xa8000043549167U, 0x9146610041U,
  0xa84439bf00U, 0xc59291000000009cU, 0x4ab3c200000064U, 0x63000000aa950041U,
  0xbe006a0050U, 0x5f4d003b00005800U, 0xa23a0000535b0000U, 0xa9c76f004800007fU,
  0x520000c3U, 0xc6U, 0xb34c520095U, 0x65000000005b00a2U,
  0xc600U, 0xaab70094000000U, 0xbb000000a485U, 0x8a9a524f0000c000U,
  0xa03a0000006a84U, 0x9d00bb6100000000U, 0x513d3f0000bfc69cU, 0x5d006f00000000U,
  0xa600563b00c200U, 0x9500666000U, 0x613cab00009400U, 0x5fb9a90000000092U,
  0xc26b000000af0091U, 0xb95d4f4c00950000U, 0x43000098933b0000U, 0x5f6061005b8c0000U,
  0x8f00b400009e0000U, 0x480094bc9d5500U, 0x42a90000a2U, 0x5739c0b35eU,
  0xc3006200494945c3U, 0x8bac00bcU, 0xb2008900a1003f00U, 0x9f9000905b62c5a2U,
  0x414c005000000000U, 0x5d00000044880058U, 0xaa0000b25a00a1b8U, 0x45000052U,
  0xac00009f00c08600U, 0xbb4e925e8a4c00U, 0x5900b70000c0U, 0xc20068540045U,
  0x57c400000041009bU, 0x60c1a3U, 0xbc00005e00U, 0xc400a89700004fU,
  0xb267004b00aeU, 0x95700062bf005c00U, 0x64be9f0098U, 0x5787ab003aU,
  0x8fa8004c006e0000U, 0x9f9f5940444000U, 0x60000085a98f6bU, 0xa600c4c56700U,
  0x4a004d3fbf6100U, 0xb76e00003dc4U, 0xa6b5005b000000a9U, 0x3a3c6000004dU,
  0x6bb97400U, 0xa200b6000055a49bU, 0xac00c00091U, 0x63000060840000U,
  0x62ae000055476f00U, 0x517f795a006300U, 0x5d580000a6008c00U, 0x9200000000adU,
  0xb20073a960584e00U, 0x6560000000b8U, 0xb75b00a9000046U, 0x9c6cbe9900006c00U,
  0x87000000000000afU, 0x9900000000009eU, 0x9400000000a50000U, 0x40006d00a1006bU,
  0x9e009e00000000U, 0xb300c0000098U, 0x6545000000650054U, 0x8600b3U,
  0x8a915b6247U, 0xc600a04f00527600U, 0x9800003c00a000U, 0x510000003a00afU,
  0x930000b969b76e5eU, 0xb900000000935200U, 0x6450000000c500U, 0x476fb700b1005eU,
  0x6c00570000bd4fU, 0x48009f000000a644U, 0x61bd5c0000564bU, 0x5d00a3640000U,
  0xc400004f004cb6c5U, 0x7799afa200620000U, 0xb600008f00000000U, 0x3976baba89426a61U,
  0x9953c00000a4U, 0xb200940000520000U, 0x9a0000000000ba00U, 0xb7b44f0000bf0000U,
  0x698c00c000bb7f4fU, 0x9669ae000000U, 0x56c500c3005e5795U, 0x45a8a9004400U,
  0xb5b9a3004600b9U, 0x394400b8c200584aU, 0x65af3b00bc000000U, 0x9400000000b9aaU,
  0xb05800U, 0x8600006a000000U, 0x5d00b100a5beU, 0x659b414100009aU,
  0x400090000000U, 0x53a952b4a2000095U, 0x3f00450000c5U, 0xa162000000a45900U,
  0xa10050008a5100U, 0x9686b88a00000000U, 0x58618a0000000000U, 0x3f9fb6a400aac5U,
  0x9700bd00590000acU, 0xb1005a3b00a900U, 0xa8480000bb970000U, 0x4900006500bf009dU,
  0x45000000000000bbU, 0xc79600003900006aU, 0x9240aca5009dU, 0x8f3ca3900000b900U,
  0x4e42610000000000U, 0x6b00009100000000U, 0x940000580000U, 0x6354a00040000000U,
  0xc18f4a0000bfU, 0xb60000b3004b8b00U, 0x4500638b84009e3eU, 0x8b9b000000ae9700U,
  0xa99f61005947aec3U, 0x86c40059bb00U, 0x8500b7a2860000U, 0x9c005aa40000a600U,
  0x8ab6aeb2009b3cb2U, 0x9900005b00940000U, 0x4eafa000428e00U, 0x4f005e5f3b630000U,
  0xbd00a800904800a5U, 0x96004e006500009cU, 0x57000054c500c45aU, 0x8600000000000093U,
  0x1a00180d1c0105c2U, 0x44ac23030b1deeb4U, 0x1a01001cf00dff00U, 0x55b0241d0d2ce39U,
  0x6196ff310b51441U, 0xfab502ac013eaf08U, 0x56b00102b0200b2U, 0x2951b404f9000e00U,
  0x642dc07120001fdU, 0x1c3ff0d072db704U, 0x3d04c309c05b0159U, 0xb7c1cbfdb904c100U,
  0x54a07000000c4bcU, 0xffbb0000c50000c4U, 0xd20fa714b7ce00feU, 0xf945000000000400U,
  0xa90700dac2530c07U, 0x6ba0103c602be3dU, 0x31bdff03aadac70eU, 0x380249043cc8084bU,
  0x142020200ff0032U, 0x4bd1c6005200e108U, 0xce4200a4ff6237aeU, 0xfa12000036004d37U,
  0x3c5f002836d3bcbdU, 0x1a43cf03130034f0U, 0xf7114bca49f612U, 0xa13ba060bb64c4cU,
  0xb400502ccffcb1beU, 0x34c5ff4a090911ffU, 0x2f513209fafdf8ffU, 0xa60b500afc0006d6U,
  0x3c802c6ff1b1332U, 0x15f2ecfc11d8fcf1U, 0x50a3183af845ef0fU, 0x1c1af50705f64800U,
  0xf440d332cfb07cabU, 0xf6f21a5ab918caffU, 0x2d040036f2ef2ab9U, 0x3656527d27001773U,
  0x95856cfd11616d4U, 0xd036adfb111aeefeU, 0x6571612f000f812U, 0xe752c404044dfc00U,
  0xcfd91eef1df21bf2U, 0xb9f17b44d417cafaU, 0xb93d00ffeef726f4U, 0xf812181a4500d4d4U,
  0x160fd6fa19135b06U, 0x12af4d041352f1fcU, 0xdcbfe5181fcc5560U, 0x58ccccb603fc3300U,
  0x4a1a16ce173046f6U, 0xf738721509144eceU, 0xfe663e0bfd38fbf3U, 0xf5c21767ca0041dfU,
  0xde4b160017c95731U, 0xd7fcfcf81814fdfdU, 0xc7fe146ef902fc51U, 0x14164df3fd33f948U,
  0xfa6b16cde52a12b3U, 0xfecc144e00d3143bU, 0xba072f6228fcfe3cU, 0x3611461735c71216U,
  0xe9145c55165bcaf9U, 0xcd30fcf61112fefcU, 0x4bfe155a2a062b5bU, 0x4cdcfbfbf8504536U,
  0x404d6133d348c53cU, 0x2f5917d5a6156406U, 0x400c000d2bfafc4eU, 0xfc131949b900eb5bU,
  0xe20e173bd81b4dfaU, 0x1767fb5016166240U, 0x13b21715fd0ef566U, 0xe7d12f47fbf30160U,
  0xf350e3cb18be15fcU, 0x44401650ff19080aU, 0xf00f5d3d56f2fb40U, 0x36087615464f5a69U,
  0x15fc5ac04d170cfcU, 0xbf6fe400f1afcb5U, 0x684b1916fd0ef530U, 0x1919f9fcfc024f00U,
  0x61a17fe18b319c3U, 0x23241b68fe1a3c0bU, 0xfa4700e2f7f5acfbU, 0xb8b6eb753047d76fU,
  0x65fc490a4c010f4fU, 0x6642f06c5066f3ffU, 0x17fdfa5ef2cdf72aU, 0x111937fbfc0607c8U,
  0x1584ff81aade4bfU, 0x44f3ed04fc3e57d7U, 0xa7d5455ef301f6f3U, 0xfbfc5ed4f42d0d03U,
  0x19d1170d1900ccffU, 0xfcfd05db47a503U, 0x1900005a33d30100U, 0x5b3432c060536U,
  0x61242b945c8d2f9U, 0xc2b6074d32032d09U, 0xc60ebd10be4facf6U, 0xd7b400002abcd748U,
  0x5b6c7ce59d0fdfdU, 0x4b00c4c70b59fa04U, 0xdb054a04f745c9cdU, 0xad09faae44ffb4U,
  0xffbefab7000100ffU, 0x100000000b1bc4aU, 0xcc54ae0e030702ffU, 0xf53200000100b8d3U,
  0xb51035fd3dc1053bU, 0xcafdb00645d1ffcbU, 0x4f0300fd2c0013U, 0x44106400000d4U,
  0x40cb002e464b00c3U, 0xb00145d20a0010b9U, 0x390f2f0bb93949cbU, 0xfed50000aa000700U,
  0x540e014e000f5b3bU, 0x593efdfb4c0103f4U, 0xce24d9c52d40f7deU, 0xcfddf60706a60600U,
  0xf64cff00b9f938a2U, 0xb1fe0114db065702U, 0xf3c32eb5f8fbfcffU, 0xa6460c0dfd0052d6U,
  0x23d0600011bde43U, 0x1495f0470d3fcfa6U, 0x3da7464336002511U, 0x1c67febe07f50000U,
  0xfbdc17b0e62f46b2U, 0x9e34201d0a574cfdU, 0xa3052b059c4fa8f7U, 0xbf1072e1ba00641bU,
  0x410433a6062120aU, 0x5031f50b1416f000U, 0xaae17163e00f60fU, 0x5bd733becf000000U,
  0xf61f1da6ebf41bf1U, 0xbda419450b6aba02U, 0xfe4f001028fc279aU, 0x370c1619ef00614aU,
  0x1a1317b91a15550aU, 0xcecb00b7d817f200U, 0xe7001452ef34c7d0U, 0x631700fe04350241U,
  0x5819bf620055feU, 0xf6fc54600c14c997U, 0xc2c9b4ce0000fff7U, 0xb84c6e46bd00cf14U,
  0x151116ba171410b4U, 0x4d0046c64dd6fe36U, 0x72006b18f637bd13U, 0x131534aa0400d4b7U,
  0x445072004d49412cU, 0x5e55fe66defcU, 0x500044b3bd600U, 0xf50f571500004715U,
  0xc60d5fa9191414cbU, 0x174f0003644800b7U, 0x150015140003af6bU, 0x14563701f7b4f500U,
  0xf15e165115001200U, 0x5200141381e3168fU, 0x460d0015bbc60000U, 0xfc11176600d01417U,
  0x1212670c13e8d701U, 0x19ae00b211110023U, 0x15c9185bce0dc917U, 0x1519ee003220d300U,
  0xf1dc150015491400U, 0xdccf341b0e05U, 0xf0c5006ace45fb00U, 0xffd51b1901a8141cU,
  0x3f00fefcb7c400f9U, 0xb200019e40300400U, 0xfb0100fc00fe0100U, 0x6851a7654c00005bU,
  0xc7a9ab4738bfff01U, 0x4101ff00fa009e00U, 0xcd008d5355914958U, 0x90000006abb8344U,
  0xc00049bd6900c9cbU, 0xaab243580600b900U, 0x139ff0258003dU, 0xb94b60cc00ff005eU,
  0x5936aab400b30001U, 0x15800bf52c800c3U, 0xb84100c801c3a643U, 0x2003b5402c49a00U,
  0xa0b6009448bc9e00U, 0xfe3a019f9f00ba50U, 0xae00be3bf701afU, 0xb40000013b005f00U,
  0xa500000002U, 0xb502410060aeabfcU, 0x4bb600b745b7ffa8U, 0x33e3b5c3a004400U,
  0x5dff5f0100a4feffU, 0xf601483bf93f6100U, 0xa1b6426cc3fbfffbU, 0x544001fffda13500U,
  0xa24600b6a5ffca00U, 0x3ff403c59adfef9U, 0xff310050c2ffb400U, 0x6300ff634b37c754U,
  0x53fc00ab00fc5543U, 0xfb0100fafb5b01a5U, 0xc23cfb5063ad033dU, 0x99fc01ff3cc66a35U,
  0xb400fe04fe4afe02U, 0x2ab974839fb4604U, 0xafbfb2faff030302U, 0x10130fa014bfc94U,
  0x65bffafffcfbff59U, 0xaa04ba06405546ffU, 0x5bfc53aeb94d3fU, 0x30bd3d0002a5fe00U,
  0xadfbfc03fd06a901U, 0x303fbfdb9fd4eb2U, 0xb6009c03053e5eU, 0xfffefbfa05b0ffb0U,
  0x42fd3d49fefef9a0U, 0x56fa00fbf8bd04a2U, 0x3cfdfafe02ff47feU, 0xa9fa00023d359600U,
  0x2b3fa43fb00fc05U, 0x6900fd61bdfdfe05U, 0x139b6f6b50102a2U, 0x742fbab9642fd37U,
  0xfcfbfd01fca3b801U, 0x4fbfb5f00U, 0xfb00fcf9c64e00feU, 0xa5c001486661ff00U,
  0xb24afb01fd5d4cfdU, 0x1fcb6fffcfeffU, 0xa90000380001b2b8U, 0x4fb73cfdb9a8c6fdU,
  0xfc3efcb6483103bbU, 0x1ab46017247b2fdU, 0xa6fefefd5bff5802U, 0xfefefe44adbf4900U,
  0xc654b843b63bb2fcU, 0xc1c306be515aU, 0xfd4000404efbb5c0U, 0x14945abfb0001b7U,
  0xfec3ff35fdfd00ffU, 0xfe00b53a6bfea604U, 0xfd3a01fcc1ff03feU, 0xfdfb02ffaec13e00U,
  0xaeff3d009443b1fdU, 0xbf00feff044d00c8U, 0x544a4b00fe40003cU, 0x4d73ff5aa300fd92U,
  0xba0398ff40aa0104U, 0xfa0000fefff9bfaeU, 0xfeaefafc9b6b6567U, 0xfbff0102c5c0fb94U,
  0xfeb5c3feffb6cdfeU, 0x6702994c02fb0239U, 0x3fbbc9460101af01U, 0x8f60fdff3fa947fcU,
  0xae694501bcabfa45U, 0x3fe00ff35fd0239U, 0x99feff4702fdfe01U, 0x45fffd0143fc0100U,
  0xfd36a601b9338d02U, 0xfefefc0002010300U, 0x57fd0000a6006d9eU, 0x200cafeff00a0abU,
  0x55398014e3aff5aU, 0xc770375bb9924ab0U, 0xfeff6601ff005a00U, 0xb100012ca9b83600U,
  0xfefefdfe013800ffU, 0xaeffaf68f90000c7U, 0xb000ca0100a36c56U, 0xf6c4000059463e00U,
  0x4db2ffff00c14c00U, 0x33f5d9939a9ffU, 0x370100c2aefdab00U, 0x530032025265ff00U,
  0xba9a5fa50039c4fdU, 0x6b00004d005effU, 0x67c73cfeb73eb04aU, 0xfe02a957624fbc61U,
  0x3537006700fd5f00U, 0xfc67fefd04a8acfdU, 0x50c8009501feaffcU, 0x4000fdffb8fe0000U,
  0x3a00006500ff0036U, 0xfd5d3c6600003d60U, 0x3c62c7c14a5639U, 0x9ab6b3c6c1adff00U,
  0xc64500fca4b54467U, 0xfa66fe020900fdc5U, 0xfd62ff00feffU, 0xbbb2c3fdfdb30051U,
  0x3cc045c856ccab00U, 0x4affa2bdfffeb9b7U, 0x700020000fefdU, 0xc1fcb49a5b5402ffU,
  0xbbb400fd00fea6ffU, 0xfd63c4feac3fff00U, 0x92b74c0002fdU, 0xc95872bc39ff3900U,
  0xa63d45c3ff00U, 0xfeffba94a3453bfbU, 0x157af005102ffU, 0x3eacfbff3afec5U,
  0xbafffdbefffefa00U, 0xfeff01bffefa3cc0U, 0x39644041000064ffU, 0x3bfbb6fd01494ec5U,
  0x45fbb845ff02fb38U, 0x5257fefdffb6feffU, 0xfc60000046005571U, 0xfe4e9d0100afbfU,
  0xa539fdabc1fcfcfaU, 0x33fb00a83cfc0069U, 0x1fffd9500563e4cU, 0xc7444ffd00fdfd00U,
  0x9251c10255affdb2U, 0x6bfeb3a64c4100fcU, 0xbe07c803fc8dfbc8U, 0x5ea1fbfa5b00aafdU,
  0xa65afd3b4642bc6fU, 0x42a544934cfa6c68U, 0x42fbfdf6fdfcb645U, 0xfcfc41b6fffb423fU,
  0xfea34ba9fb46fa53U, 0xa93afdfbfcfcfdffU, 0xfd6400fafcfc5dacU, 0x4ffdfcfafc00f8fdU,
  0xfe02fc34fbfffe48U, 0xff4d5b5500fea8ffU, 0xfcb438613ffcffa7U, 0x3bbe973035fe53c5U,
  0x3cfb4850494d596bU, 0xfcfda5c57aa90500U, 0x48bc5efca1a6b44aU, 0xfa4faac7fc00a05eU,
  0xfc02fd4492fefd69U, 0xfbfe0001fdc99d02U, 0xfe52fdfdfbfd7f93U, 0xfd8ecff8fa69a600U,
  0xfffda5fea10233b7U, 0xfdff9bbcabfdfe78U, 0x795743fa005a00feU, 0xfefcfc30ff48fef9U,
  0xa5000000ba9cb0abU, 0xb0000000a00000U, 0x3f0067be0000005eU, 0x53ab000093U,
  0xb54e84005b5700U, 0x9d0038000057U, 0x4957ae0000410000U, 0xaf000089005e4dU,
  0xb90000009300U, 0x3aa100b254000042U, 0x4ca700003fU, 0x52004800b0b20000U,
  0x3d4faea1a600U, 0xc300a9b2a59692c1U, 0x835ab84e9500b7U, 0x6965aa8300afa5U,
  0x484100b254b00000U, 0x820094649300U, 0xaa00920000999500U, 0x9396c3924cb1baU,
  0x9ea13950U, 0x9f5c00c80000U, 0xbe00000048b700U, 0x970000af5062U,
  0x5449be00005e3c00U, 0x54a953beafa2U, 0xab000000a488a8b4U, 0x5f00844f6400U,
  0x4ca800000000U, 0xaa9ebd00a00000U, 0x55aca2009a000096U, 0x999a0054938a00c7U,
  0x890041004eU, 0xada2560000a54a50U, 0x6a5d0000000000a2U, 0xafab0084935cU,
  0xbb0000925900b8b5U, 0x59006a0000000000U, 0x9e00006e978c0000U, 0xb300ad009782b456U,
  0xb3ae000000c500aaU, 0xb4839ac8009f00c0U, 0x5600b79e54c2ba98U, 0x5100a09d004400U,
  0x85a1a2b500U, 0x55c30000a68fb3U, 0xb93b9a00a38d4dU, 0xc5003c47b7000000U,
  0xbe5e5d0000000000U, 0xb48400ab00c4a2U, 0x4e0060c500c73dU, 0xb600c0a4004d3a00U,
  0x8ab2a3570000509aU, 0x96a5baab85000000U, 0x9d00a899413bc785U, 0xba5aa900000088afU,
  0xc60000c3000058U, 0x9500920081U, 0x6900000000004a00U, 0xa560ac8f00000064U,
  0x9300950039510000U, 0xc70000b5bb8fU, 0xae98b30000b500U, 0x4f9d0000420058U,
  0xbb0042c500a00000U, 0xa33a00004641bb00U, 0x5a004b00c43e0039U, 0xbc004faec0000000U,
  0x6c9ab500000000U, 0xc00000U, 0x9e8c005ca78f0000U, 0xc5579a009b00af00U,
  0x9b5200b800c192c7U, 0xc24d00a2006e8d00U, 0x86ae5800U, 0x3a4600500000bfU,
  0x5d009e0000b43eU, 0x8e006500c4000000U, 0x41c8ab00a898U, 0x8b9a006700c30000U,
  0xc4910081004c0000U, 0xb194b85c66666f3aU, 0x6000c0ab54005962U, 0x45c79800000000U,
  0xab47003d5956U, 0x6d004d4a0059U, 0xbd40b038000087a7U, 0x4f0000bc0000c000U,
  0xc30000006e45U, 0x3a8d430000000000U, 0x94003f67U, 0x5500878697a0c6U,
  0x420000afaf005eU, 0xb6a60000005bU, 0x3f000095ae5500U, 0x93004e00009751a3U,
  0x64a500423e50ae64U, 0x9a00000096000069U, 0x874f0000840000U, 0x57000086aa009600U,
  0x9b005100b2006800U, 0xacbe00000000U, 0x5e9d008200bab7U, 0x5000b50000bc6699U,
  0xb90000000000624cU, 0xa500689a4c0057U, 0x4e3a0000a9U, 0x6296b9515000b2U,
  0xbdb2000000c24987U, 0xb0004a00003d00U, 0x8a000000463e3aU, 0x930000a7b34d0000U,
  0x99a300000099a9bcU, 0xa6a146000000b39bU, 0x970000a2004f4355U, 0x3d0000879851c400U,
  0xa600005dU, 0x6886b1c200U, 0x96ba99000000b3b1U, 0x5a5400008d000098U,
  0x383a0000000000U, 0xb30000ac00009200U, 0x6846b76d594d0000U, 0x4300b000586c00U,
  0x9f008551000046U, 0x3b5500a0c2U, 0x5200009200008e00U, 0x8b9f000056003d6bU,
  0x4f5aa700b70085U, 0x62b7006a00b7U, 0x440000003cU, 0x9e00c800006992U,
  0xb3c697000093U, 0x3c00a9a8005d0040U, 0x3f4800003e00a647U, 0xaf840000874b0000U,
  0xad42b0004d000000U, 0x5eaf00419aU, 0x97bf006c00000000U, 0x5c6c61a900a10000U,
  0xbc0042a842004f00U, 0x50009a0000c56000U, 0x3c00000058005cU, 0xb2bc00a14d98U,
  0xa643a0b6a0U, 0x8a49004f0000a4U, 0x415500aa00460000U, 0x665800000000U,
  0xa60000ad9d005100U, 0x6198a700c08fU, 0x9800000000009f00U, 0x8abf004f38a000a6U,
  0xb6930000U, 0xa200004354U, 0xbb00590083869800U, 0x65000000003ab900U,
  0x954200003b000000U, 0x85000000U, 0xba005fbf000000U, 0xa8009dc6000000U,
  0xa700396f9b99U, 0x435d0000U, 0x3b00a80038003c60U, 0x58000000abc269U,
  0xc200546d0000a300U, 0xa96f0000ac4542U, 0x65c45787003eb7U, 0xa800c2004c3800U,
  0x576996c7bfU, 0x8db600b5a28d00U, 0xc36f0000b6b1U, 0x4649U,
  0x5c000000c300a5U, 0x86000000009f00U, 0xbe000000000000baU, 0x9d6200U,
  0xc9004c06420045c0U, 0x353d010504084203U, 0x2a13e04a9b6a400U, 0x43b8a8569a016000U,
  0x3b7db9c9cb00b301U, 0x2c240b2b1fe0003U, 0x3a86603c26b0301U, 0x600a5040100ce36U,
  0xfb4408007eb95742U, 0x49014506fc5401a9U, 0x70200b2fea3014aU, 0xb8b102afa802929aU,
  0xffc7cc82030046U, 0x4aa000aaa55b0002U, 0xbfb60004bf665cffU, 0x76e9f00be005e49U,
  0xc902ff029cabb499U, 0x5704010b013fc5U, 0x103420443bf0003U, 0xaafa470166020600U,
  0x40002914a465002U, 0x391a6c2a8ffaf61U, 0xbe0300019c0002c0U, 0x8b02ad0002a070ffU,
  0x57c157f4b4fd5e38U, 0xacfd42ff070000feU, 0xa9fe47b402fc0001U, 0xfe73be9e05015ba9U,
  0x4a00c601bc8e0001U, 0x100fbfb0239fffeU, 0x346c5b801a102b0U, 0xb801050301befd04U,
  0x1ad2fff02760202U, 0x257ad653e08c600U, 0x4e3da9ff4efb01U, 0x401fdb001ff0000U,
  0xfbfcc7b4029b01a3U, 0x2436f6e5e029a5aU, 0x91fe00fe3ffaca00U, 0xfe02564dfb00ad01U,
  0x5b04fd01036c07U, 0x59c4fdf95a049099U, 0xfc014153f8009202U, 0x46500370100fa5cU,
  0x5305058d5c456e48U, 0xfb01b5c50404048bU, 0xaff300ef3c5f3effU, 0xb8b43aac00b704U,
  0xa2c4bdf5026ac402U, 0x2000000fe024700U, 0x3515302feb83fbeU, 0x23963f9380051a8U,
  0xc5c5684e518e5000U, 0x3bf024ac8fdU, 0x394864aa3a005aa3U, 0x3c3bca5565f9405U,
  0x19f3cff02020493U, 0x3bc00bb08bda800U, 0x3000242033d00b3U, 0xa04a0004ffb20200U,
  0xab0201ba5d000000U, 0x203a204058eU, 0xa73a005d0039009aU, 0x5005040400bd0305U,
  0xa04c035ec30603feU, 0x200c794c1675c00U, 0x4006a3900b30005U, 0x40400ad04b4f800U,
  0xad020395ae0001baU, 0xc905006005a3U, 0xc4b9fc00000000U, 0x450505c30039c0b1U,
  0xc508040404586b46U, 0x3c000047ab05a9fdU, 0xb00051040005bcffU, 0x3da2c8af0001a4beU,
  0xcf0449004d4e0439U, 0xac9953023d050005U, 0xfa67000500fb0000U, 0x69bd685400059cU,
  0x49603c93dc9035fU, 0x4bf98cad020500cdU, 0x9bce0465000401f8U, 0x4603554197cc04bcU,
  0x5bf058d509d3d00U, 0x303040003b739U, 0xc9acad05f9b5bcc4U, 0xb09dba459600c4cdU,
  0x40002035000abc4U, 0xfcfe01465a039da1U, 0x5903fa5d5dc90000U, 0xa8059f024e02acU,
  0x44040351b25203f9U, 0xfcfd6ea1aeb24101U, 0x3c700033a3c0247U, 0x3000100008c3da2U,
  0x8006b4a03037ffbU, 0xb80146440507ba4fU, 0xa402a5b4ca0202b3U, 0x5f0202045804025eU,
  0x30003513e02fa92U, 0x2feb3fefd039fcaU, 0x5083f0500c7ac02U, 0xfab55835a99401ffU,
  0xb9baa3b20600fe50U, 0xfd033805a9ff36b3U, 0x664e00fe8da10300U, 0xff729954049300U,
  0xa0ff30c301bb0002U, 0x502000002005d00U, 0x405bb020305b502U, 0x106b0cbbd003141U,
  0x45cb7580159025aU, 0x4ff4dc501339fc0U, 0x4502aa0101460457U, 0x51980146035a01a2U,
  0xac004d03a00200b5U, 0x2b000ba05ff0303U, 0x25ab401003f0303U, 0x4207ff633ca46200U,
  0x23e04c1b8cca0U, 0x300c9aab8ac0457U, 0xa9000400a50b02cdU, 0x7058a3b9c3b4b00U,
  0xb800c0ab0354523cU, 0x10358070347034aU, 0x4c905bb049f02U, 0x1cafe02033a7803U,
  0xfb03015a67016dbbU, 0xc9fdfeff00fb01f9U, 0x50d0030a9d00b5a8U, 0x4903aab94f035f6eU,
  0x6bfa065100ffc440U, 0x94fea064020102fdU, 0xac374b33fbabc640U, 0x255030302bfff04U,
  0x3d053f5c42030340U, 0x3a00fd7f040053b5U, 0xba3c040200005a00U, 0x45f004d03b30600U,
  0x1040455c493c436U, 0x90fc00a4c0abca00U, 0x42053d408d3993feU, 0x9847ae03fa96c204U,
  0x45601420403048fU, 0x39700fe03040000U, 0x3dadaecbf99fa89dU, 0x2c637040100a500U,
  0xfd635b970400af00U, 0x9a964d034d0358abU, 0x61fd005ebdaf0045U, 0xc99e02000000013fU,
  0x5e01a99704036004U, 0x1008ca3580440bcU, 0xb53cbf0361014ec1U, 0x620300f898b7c100U,
  0x1c960009e004c4dU, 0x3d4dfe3f3dfeU, 0x9bfb00585d000000U, 0xa2b60341003e03U,
  0x3024e01a155c702U, 0x59d005103509300U, 0x391049e00950075U, 0x305000045003ca6U,
  0x385465619f006200U, 0x5e5ffcb20700U, 0xfdadfe00c20000U, 0x45c9a800003a05U,
  0x3b10628faf05a300U, 0x19cbf03c3aeb7fcU, 0x4023903380300caU, 0x2b005b201f90155U,
  0xfec2023a03000100U, 0x9c03049b6b0158U, 0xbd0569b20064008fU, 0x6269044e9e0355U,
  0x4a9a008e000046U, 0x980000bc67abacc5U, 0x420000004366a98fU, 0x608200U,
  0xc14c58660000U, 0x9f9d00450000bf42U, 0xa99bb863000000U, 0x98000000a20092bbU,
  0x9a5700aa00a4U, 0x8f000000003f00U, 0x9e8c00006eU, 0x47c4000000638e5eU,
  0xc0a76e8e0000U, 0x6400004fae008dU, 0x9bac0000004a0000U, 0x8e00000000517500U,
  0x5d72000061c2a5U, 0xc20000U, 0xac6d00a6b40000U, 0xc46a00000000a800U,
  0x5f0000bd54bf64b0U, 0x4c6400000000c3U, 0xbb3e008a00U, 0x9200920000bebec0U,
  0x4e0066006d000062U, 0x5900b60000465562U, 0xb3be005091b4a400U, 0x5d00a7596b3bU,
  0x940000000000U, 0x55b8668600409300U, 0x5350009a00c30000U, 0x5d6982a24700c1a5U,
  0x99af5751a500U, 0x4ab8c10074U, 0xbc5a000000a90064U, 0x54b700U,
  0x5d00004c8600U, 0x57b100a7b7523fU, 0x5ec0580088c500U, 0x528d00000000b600U,
  0x5f0000c50099U, 0xc4U, 0x4963ad4063000000U, 0x86009bc100ad86U,
  0x5fb79454bb009dc0U, 0x920000a900b93cU, 0x52c3b800U, 0x8700ba000040a8U,
  0x3e0000008b009800U, 0x89ba00004d000000U, 0x6b009abdba006f00U, 0x5800000000U,
  0x9b84005a00004c54U, 0xc300865e0000c4U, 0xa85500909c0000U, 0x91ae9eU,
  0x9100U, 0x4655004aa6ab00U, 0xa7006ac14f65U, 0x5a006500644fU,
  0x559100005a00009dU, 0x654a00678d00008eU, 0x40000000000000U, 0xbd008f009f9600a8U,
  0xa54c004000009dU, 0x8f00000000006100U, 0x670000afa300U, 0x47480000005a5300U,
  0x5c6f003f3f47U, 0x440057b300b6U, 0x95a3005164c3U, 0x985a000000000000U,
  0x840046b4c400U, 0x5a84c3000000U, 0x836d006a9600003cU, 0xa900000050590000U,
  0x83008b00008900U, 0xa900005d00000000U, 0x69000070000000U, 0x6e0000006e476aU,
  0xc2ad00a000440000U, 0x5b6f004b0000008dU, 0x4a00009042720000U, 0x8d3d0000b7a200U,
  0x8b0000000000553eU, 0x6600000000009facU, 0x470000ba00006fa3U, 0x58008f0075000096U,
  0x8f88000098c1b8U, 0x6395004100004f00U, 0x66000000003ea6U, 0x99004c0098c03cU,
  0x8400000000a896U, 0x9d8e670000007200U, 0x4100c1620098643cU, 0x4866959a00005600U,
  0x69005000a60000U, 0xa7c0006200bf0000U, 0xc000a70000009eU, 0xb39646009a3c00U,
  0x9b0000U, 0x89a7003d00720000U, 0x8f5c00babc008991U, 0x4b4f58005d009500U,
  0xa2c0b10000U, 0x5a00a06848aeafU, 0xb40000400000976dU, 0xb700004a009b0000U,
  0x4900436400825300U, 0x5c54003bU, 0x860000a60000adU, 0xbc71730000004a00U,
  0x8b004100006bb7U, 0x8e3e64b6000000c2U, 0x97bd0058000000U, 0x5f68a40000b10000U,
  0x48739a00b0bb0000U, 0xa5009d0082a30095U, 0x4600000000U, 0xc400bc00619500U,
  0x91005d00006100U, 0x5baa00a700000000U, 0x550000003d0000U, 0x48b54e9200000000U,
  0x41000000a15e7400U, 0x4000ad56b60000U, 0x994f004d4a9dad9bU, 0xa40000c100a0c300U,
  0x9700005700000093U, 0x5495U, 0x41U, 0xa700668c6648c400U,
  0x3f00669d000000U, 0xb7958c0093003d00U, 0xb20096000089U, 0x420000008686U,
  0x40b7000000940000U, 0x5900005493680000U, 0x3c000000U, 0xbd0000U,
  0x65008295004abc8cU, 0x60004fc39541U, 0xa8004400000066aeU, 0x900000006300b800U,
  0xb20000c4004451U, 0xa3ab560000bdU, 0xb400000000b9a8U, 0xa00000000041U,
  0x830054006500a2U, 0xb259aa85004d0000U, 0x7300004600000000U, 0x4000006000550000U,
  0x6200ba00c40060a0U, 0x4f000000c0U, 0xb28d00009f0000U, 0x5953600000000000U,
  0xa1005c000000a4b3U, 0x96a300000000U, 0x9a564800000074U, 0x938100000000009bU,
  0x4c8fa46900a900U, 0xa06d0000000099U, 0x9f00be009b00baa7U, 0xb2b9c5009500U,
  0x4800444a008e00adU, 0xba8e4e00U, 0xc2009cac9bbb0000U, 0xa4000000b55b00U,
  0xa1b46bb1009eU, 0x920000003e00484aU, 0xc09700bc00000000U, 0x640000006450U,
  0x8900538f0071a800U, 0x7500b700b200b700U, 0x9948be00006c00U, 0x4a004300004a00U,
  0x53afd02300002a4U, 0x30557bd550603U, 0xf8b70036044905a9U, 0xd0c23904cf69U,
  0xc500c0060002af68U, 0x3f5e9000ae000004U, 0xa346bf884104a404U, 0x800a2ada750c300U,
  0xc6c800679ca8993aU, 0xca05024d640502U, 0x6700fd0303d056U, 0x485047fec59b3cU,
  0x30000a9b3040004U, 0x680400cc5e0000acU, 0x5200a901bf6ba702U, 0x4bbe5364a300ac63U,
  0x9b47f7c000fd03U, 0x5ae0141003801U, 0x9b5a9f0004f242c2U, 0xc2c7050604a500U,
  0x40034023c03bc05U, 0x53a9d006ac7f8fdU, 0x45e00bd03d003a4U, 0x3ab54e00440003acU,
  0xbaccfc3805U, 0x2604ccfd2e004455U, 0x36c19b053a0292U, 0xff030402003c00U,
  0x5400005d00adb404U, 0x59e39b401a8b3f4U, 0x5bf7a1c938c4066aU, 0x23dbf674d00c4b5U,
  0x41a25d93910506U, 0xc95243fe02fd5b05U, 0x640287ce0062c9U, 0x58fca952d1430100U,
  0x361620703034504U, 0x504fa025a045002U, 0x3f500fb63060461U, 0x4b06fef7050002b6U,
  0xcbb80592cdc20503U, 0xc6ce04045202048bU, 0x9502050403000004U, 0x3330003c8ffae94U,
  0xfcfd030401050346U, 0x504ff0261be0393U, 0xff01450503045642U, 0xa059fc8ca6004700U,
  0x5902fdac0503fc01U, 0xc93600fc309a40b2U, 0xc4fea09802ff00bfU, 0xb7b60004cbffadb9U,
  0x58cdfdcb65a70006U, 0x65fe3f5b00004e05U, 0x9e884a37ff573402U, 0x84e014b00a5c7b0U,
  0xb600c9c8ae604203U, 0x5005903b4ff38beU, 0x3cff015bfe423a03U, 0xb3c001ce67005500U,
  0xfdc14abea94237fcU, 0x102b102a80303U, 0x2c261b94900ffU, 0x3a6701bf368f02c9U,
  0x6a0b9b730050a64aU, 0x9900340165025599U, 0x58fe6558ffb50097U, 0x4033700af4c0100U,
  0x30002ff02fc04fcU, 0x8b00b95fc840afU, 0xff8b00a0fffb01b5U, 0x205ff02a1c60301U,
  0x1bf4202010304ffU, 0x1fefefe0203ff03U, 0x5600045896019e03U, 0x20001ff560302c1U,
  0xa9a9a3ff02010291U, 0xb78e0201bc037c03U, 0x30300a73463985bU, 0xc243a6ff000241U,
  0xc502a10303f84804U, 0x495aff9800fefe01U, 0x3da4c0026402fe02U, 0xb3c0bc02ac9ffe00U,
  0x9dff45429e5e99ffU, 0xff4d8602029b6802U, 0xaa013e0302cc0202U, 0xff02af99fd0001b4U,
  0xb30201054c9c9203U, 0x2a40203d0c65800U, 0xc140ffa499525101U, 0xfd000002ffc600U,
  0x2ff430393013b02U, 0xfe63fcab49419704U, 0xbc5100b93c036102U, 0xb00000c5ffc13b3bU,
  0x7200a5c8fe0002f8U, 0xbfc6c302045502c7U, 0xa5020005b3a20100U, 0x9a000336fb04a300U,
  0x50a4f8ac4d4700ffU, 0x50020000f94bbbd0U, 0x3803003803030201U, 0x864300006900aec4U,
  0xc1003b033d3ea147U, 0xbb395443006d03U, 0xc20358000101039dU, 0xcb00360400040200U,
  0x355b87000cb0041U, 0x4c463003f000002U, 0xc65d005003505a01U, 0xba000001350200U,
  0xfd000800003503U, 0xfe0204000447aa02U, 0xad6200abbc043cfcU, 0xc10000384d02a400U,
  0x9303c35b0003U, 0x1b2000003c35c04U, 0xbcffb804c2390100U, 0x683c60460200be00U,
  0x48005000f958c3U, 0xbc0102b963000001U, 0x53039600025202abU, 0x10368c26cc068U,
  0x66cb00b10054U, 0x4f013f00affd39feU, 0x59040091c002ab00U, 0x2ab00005da50102U,
  0x380400c1c601b63eU, 0x470000fe01a202ffU, 0xa152bf01000400U, 0xb2a5fc02454d4f00U,
  0x9b000201cb3500b1U, 0x101fe8ca7a9024fU, 0x3dff505200b20301U, 0x470454004a00b904U,
  0x403abffbcc90104U, 0xa0c6018ac94100fcU, 0x100050200b50105U, 0x45b2ba54b5b9fc43U,
  0xff4ffd029901ff9cU, 0xb9433bb640593effU, 0xfca4aa550100ce01U, 0x98440204b95d06b4U,
  0x4804a35503adfe68U, 0xadfb006304ff0096U, 0x52bfcdbb4df6fe4dU, 0xb50050fe4efdfc00U,
  0xfe035302038a03fcU, 0xffad4039ff470396U, 0xfca935024a5cc2b9U, 0xa543fe000502U,
  0x9e9b019340005201U, 0xfefefcfb01fe58fcU, 0xfeaf01349dfbfc00U, 0xff02fa6045fafe00U,
  0xff00a63c01bcff89U, 0xaf353dff4b00c799U, 0xfd7f5500fc2f9542U, 0xa5040201c393fb04U,
  0xb257000555053c41U, 0x3fd6dff020362bbU, 0x1fdb5a93700ff09U, 0xcc02fefafdfd083eU,
  0x40101fe3b46b493U, 0x50899e5033b3093fU, 0xfdfd00fdfd53fcc4U, 0x430201b546a5cf03U,
  0x235c80103affc35U, 0xf9fe0046ca01fe03U, 0x44d4403fa3a9a60U, 0x14202f736034b00U,
  0x303aeb2019702ffU, 0x47ff0102f938fc03U, 0x4bb00fe00004fbaU, 0xa7fa3ea2ff3e03feU,
  0x85005f00910000U, 0x970000b30063c1U, 0x405d008b0000c597U, 0x560056000000a26eU,
  0x984c005000003b00U, 0xb3479dU, 0x8f0000639e0000U, 0x9600bd0000be70U,
  0xc245a60000530000U, 0x51a2005a000000U, 0x85420093c60051U, 0xa70000a43ba8bfaeU,
  0x59bd0052004f00U, 0x515f3a00008aU, 0x4346a600b3000040U, 0x49000000400000U,
  0x99c3c60000U, 0xb700004f000000b2U, 0x54b4005353000099U, 0x63006d005595546eU,
  0xa500c4006c00ad00U, 0x87b5720000bfaa93U, 0x9d58b40000518d98U, 0xb50000003c8c0000U,
  0x5c000000003a6e3eU, 0x454700003d000000U, 0xa05e9500004dU, 0x5b8ec3be00a03c00U,
  0x3c0000000000ad00U, 0x8e484aab00U, 0x5c560062009e00U, 0x9566a2818bb7U,
  0x3e00528b009d00a2U, 0x6600850000000000U, 0xb64e50000000c4U, 0x979b009800004fU,
  0xab003d00ab450000U, 0x64aa540094008aU, 0x87b5004200000000U, 0x41a95b00b7000000U,
  0x9a009e546f850045U, 0x83c400c3004700U, 0x8f005a500057U, 0x57aa0000920000U,
  0x5600000000000000U, 0x4f5a5e9400420000U, 0xbaa352004b000000U, 0x56c38e5e53U,
  0x4c87004000U, 0x58b000000000U, 0xaa0000c2929d40U, 0xb885bb008d000000U,
  0x6963979592843dU, 0x9ebe000000a10000U, 0xb350006000610000U, 0xa1c0009300006000U,
  0xb1bc00008400b300U, 0x9a8faba286c5b569U, 0x4d0000ac0000U, 0x44af004d0052009eU,
  0x8600910086009d00U, 0x3940846300a1U, 0xbc00a0844b8393a6U, 0x540000000000a985U,
  0xbf6a4e008d000000U, 0xb6000000c5b400U, 0x620000b2000000U, 0x4a99004600U,
  0x8d3fb00000000000U, 0xba00008b60980000U, 0xc3003a0000c6U, 0x418f47005b000000U,
  0xbe00b9006100U, 0x55000000a6000000U, 0xa171908c50a7c300U, 0x9aba0095b7000000U,
  0xc300006ba0bd0000U, 0x6b5a000000450000U, 0xbd4900000099U, 0x9f68940095c3bcb1U,
  0xa00083c3864600U, 0xa39cab00480000U, 0x5000005200ae0070U, 0xb1000000000000U,
  0x8e006d3e3eaaU, 0xc1940000a9628e8bU, 0xac0000a100abU, 0x39ab3d0000006f8fU,
  0x5000a663a6c300U, 0x410052493f53U, 0x614200009766U, 0x6a0000007195469cU,
  0x3a4f00c3b8000000U, 0xa400c10000c1a900U, 0xc164575fae00U, 0x8db4a6adc3baa500U,
  0x58645400510000U, 0x3e0000005d00U, 0x40ad3db09dU, 0xb400003a000052U,
  0x94000000a1000000U, 0x9c6644000040U, 0x6400006ebfbf538eU, 0x9f8600U,
  0x579748006f63a3U, 0x4f00008ca18700U, 0x450000b9008c00c5U, 0xa6004f0000595d97U,
  0xb3c3638300460000U, 0xbb4cbac6000000b8U, 0x6595000000b2005eU, 0x8a00U,
  0x530067a63ac33dc2U, 0xab450070000000b7U, 0xb30056c686000000U, 0x460000bb00a0U,
  0xc400c00091000000U, 0xa940ad00008d00U, 0xc586b39ca4c04886U, 0x96be55569f00U,
  0x6100000052a9U, 0x3e00U, 0xb181c4000000948dU, 0x4e008700b600U,
  0x6ac3630000000000U, 0x3e9a61005f4bU, 0xc14790003d006063U, 0x42c60000U,
  0x87000000005200U, 0x54000000bd4a92U, 0xc09284000082U, 0xc0005a0000b10000U,
  0xa6000000003cU, 0xbd00a600U, 0x830000c54c008d00U, 0x9c00afa700ba8c6fU,
  0xa60093aaab40ad87U, 0xbbb5863cb60000U, 0x9c00003a00000000U, 0x3b42a200009dU,
  0xacU, 0x8c3c8cacU, 0xae00928f3c008dc3U, 0x890054b0815f48c3U,
  0x4888008b006000U, 0x665a50940000U, 0x4b5153000092a7U, 0xaa00b95300529aU,
  0xac934f004b000000U, 0xbd85be0000U, 0x5000c200005b0000U, 0x56a300a900650000U,
  0x42b2a4a600af85U, 0x534bae4260U, 0x449e8b3e00920000U, 0x9a00874800009dU,
  0xbc40c10000008f00U, 0xae000063003a00U, 0x68525e0000670000U, 0xa0000000523aU,
  0x854f004100a49300U, 0x640000c7000000U, 0x9b4fba00c0U, 0x9d003955005800U,
  0x61000000000000U, 0xac00000000950000U, 0x8258bc599cbcU, 0x480000004d00aa00U,
  0x59980000c40000U, 0xa65b00614a4a4ebeU, 0x99bb00818b000000U, 0x4d005f00c600U,
  0x6400005c00005cafU, 0x97510000bc0000U, 0x84000000a49a00U, 0x9f00a0ab6f00c2U,
  0xa0009c745d007a9U, 0xbcfca2b30468fabaU, 0x445a16dfb4cb6b6U, 0x5ec7fefdfbb1c200U,
  0xda09fb7ffb44fbU, 0xfb49c745025ba0ffU, 0xff025d6890fd4f54U, 0xff00b139fc415dffU,
  0x8f0a3951a40002U, 0x35fc33674463fdb6U, 0xb9fe0002fbfffdb7U, 0xaafffdc0ffffafU,
  0xfebe51fe9ffd00fcU, 0xa7fe49b38eaab852U, 0xff053e7256fefdfcU, 0xa84300fc9c5500U,
  0x5001480b3a0655c9U, 0x4b32ff006501fda1U, 0x1fd4f0696a0c106U, 0x3a4ffefdfe35b500U,
  0xff0003fe004b4f3eU, 0xa4fc00ff3a3604c6U, 0xfb015402416044feU, 0xfe5800aefd00aabfU,
  0xa3febff700fd4246U, 0xc8fbfe020dfefc97U, 0x9bfc5cc693fe3ac3U, 0x107fd3bbe00fecbU,
  0xb6a905fc5e4700fcU, 0xfcaef95b42c40040U, 0xbbaf0005fcffb7fdU, 0xfe49046a384aff56U,
  0x501bb3aff0558feU, 0x46934cfdbe08fdc0U, 0x349d02098700fa00U, 0xca45fbfecafdfd00U,
  0xf8000a8b6cb3b3f9U, 0xacc607079c0302fbU, 0xfaa145b2929f36f9U, 0xfdb84904f8000647U,
  0x40b7b5bb040304acU, 0x5132fea20106f800U, 0xcbfd04bcaecbfd55U, 0xa40500b500004400U,
  0x108bef85cfc0590U, 0xb5a941439803c2a2U, 0xab00ae5200fffbU, 0x409f04b23155a96aU,
  0x40246f504b3bafeU, 0x293ff4e0303fc5aU, 0x6005b3bfb000001U, 0xa16b00fb35a6ff00U,
  0x5ab5fe048f03fdU, 0x50ff0302003602feU, 0xc974000a48ffff4dU, 0xb1abb9bafd3bae62U,
  0x2bd04fcb95f0401U, 0x39cb1a6084156a4U, 0x50005d3bb501b903U, 0xb00300ff3d00ff00U,
  0x5e02039a024c459eU, 0x44bb019c034300U, 0x3eaa024a00ae00U, 0x271be0341550166U,
  0x393f0205035dbffbU, 0x200a3fc9ab34900U, 0x3000302cb025405U, 0x4a300ffff42fc39U,
  0x91c33f00b69e565cU, 0x5905044505b404U, 0x54a100fb00a043b2U, 0xfb04ba64004205beU,
  0x5a80466443942b9U, 0x3bb59cb07d00001U, 0x2360303aa499500U, 0x65bb3700bffcfdb7U,
  0xfe04bd5bb13c563bU, 0xa0035d57524001U, 0x400600abfea13b52U, 0x6d401b9003f6bU,
  0x303af0202c505b3U, 0x548ca7fc0107c142U, 0x55fea9affd028af7U, 0xb7aebc0000ff0000U,
  0xb60505c9ba4f6bfdU, 0xfefe66070008ccffU, 0xfd4e6002c5f9fffdU, 0x6100946c4b516106U,
  0x60051000601ba00U, 0xfffbfa4300073f3eU, 0x435fd05fd524b4dU, 0x308b8a079450100U,
  0x5550079706fb40b6U, 0xa43a5ffe00d1c1ffU, 0xfe0500c045fdfa50U, 0xfea6fd48fcae50c2U,
  0x84f52020501ff9eU, 0x50c448020408f7feU, 0x3e920009fbfffdb6U, 0xfe03ff9df7a46068U,
  0x4603caa437fd00fbU, 0x8e4603feb446b5aeU, 0x3004353603afaU, 0x72004bfffb0004ffU,
  0x24c8b37b400c55fU, 0xfd4fffb34c033dfeU, 0x45b00ac99b8fd5aU, 0xfd00fafcfe3800U,
  0x3ab0b5fd01fd0051U, 0xfe920000fa00b992U, 0xfe04c500ff00fefdU, 0x3b4b65acfd00b700U,
  0x395e36b200fecb00U, 0x43a99c157fdfd00U, 0x3eff049651fffed2U, 0x36cc7feaffe50U,
  0x8700019ec5fd5650U, 0xfdfd00b7004107abU, 0x98050001fbfe33fdU, 0xa45f5400420004a5U,
  0x680443b75362af01U, 0x3f3efefe06c6a13bU, 0xfc0a00fd08fc04U, 0xd3ffafffff95400U,
  0x3e00feb7049600fcU, 0xfcfd5bae5a490402U, 0xbd3e00058da151bfU, 0xff02bb459b000c60U,
  0xb6bf010102434601U, 0x6cfbc401b9ff92bdU, 0x46530009855U, 0x54aa9fd34c90166U,
  0xfefe51fa6dfb09f9U, 0xfbf90acaa35c0134U, 0xfaa651c22d57fafbU, 0x510158b3ba000344U,
  0x204c2055e0201U, 0xcefd4c6a690497b1U, 0x7b204d73b00ff3cU, 0x5d54c80001acb733U,
  0x5db5b4f947c1528dU, 0xfab70303c3030101U, 0x1c7401093adfcf9U, 0xfd005f05fd004a04U,
  0x6c036d3459c1043dU, 0xb9bdfff804033900U, 0x67000407fa000004U, 0x303cbfe9e54ff00U,
  0x3d3d048d05cb38feU, 0x53010336c00337ffU, 0xadb000f900005898U, 0x9b025f02ff000303U,
  0x3fe06fab502b702U, 0x3d00003ba704ff00U, 0x300c805a7a60001U, 0xbe033df953580252U,
  0x510402a04d00026eU, 0xb23e014f505dfeU, 0xb9a635435000b200U, 0xfc3602b200af003bU,
  0x2bd03c8050204d0U, 0x5000055470300b5U, 0x2c602bf00fdb1acU, 0xc7585e00fe45f900U,
  0xffbd04000300ff00U, 0xc8a6539ef903079bU, 0x98ff000445aaa43cU, 0x2033bc50053ae04U,
  0xc60d04005b0841aeU, 0x3ffafd0403014f8aU, 0x4c3b1024badf9bcU, 0x6057fa0054b2ff58U,
  0xf903030051ff02a9U, 0xcab2370600d04895U, 0xfb384e01f9029aa6U, 0xb90605ba470554U,
  0xaab77a5749004e41U, 0x49c400c3009aa5U, 0xb799b5a0a29ea300U, 0x64009abb0069U,
  0xa044000058000000U, 0x57000000004d5fU, 0x44000000410000bcU, 0x9167c44faa0060U,
  0xaa007000be0094bbU, 0xa447000000499b00U, 0x58004e65558b9a9dU, 0x970000c6U,
  0x51a800000000004fU, 0xb30000004e5fU, 0x515300b600478dU, 0xc4006e0000ad00baU,
  0x54U, 0xc100bc00000043U, 0xae5100b9005a4f00U, 0xbd0060894c00005fU,
  0x6700593f0054004bU, 0x58930061bec5b1U, 0xa1004b0000beU, 0x8197a30000ba005cU,
  0xac005ea6000097b6U, 0x9300c200b600U, 0x6d00ae7155003d57U, 0x7900bcae4300bdU,
  0x443a63c3008cU, 0x5d009c0000bd8cU, 0xba4b4db80073c0b4U, 0x548f005100U,
  0x9e81b7000000U, 0xbf5abda1000000U, 0xb4a10000463d933fU, 0xb60000600000b0afU,
  0x6266bbbc003da000U, 0xc6000000c00000U, 0xb30000b76b869eU, 0x8f8cb890000051U,
  0xba000000b300U, 0x4d0000004e0000U, 0x53008a0050000000U, 0x9f00U,
  0x5c429500a0U, 0x9500a795b65100U, 0x65bf9d0000000000U, 0xbf00b6c1009dc4U,
  0x4497b600a5bc0000U, 0x5f8a3d0000489fU, 0x49570000U, 0x9700b5bf000086U,
  0x9900a65600be005dU, 0x974a990000c700U, 0x3d3c57595d5064b8U, 0x6100005096b2U,
  0xb2c1938cbdU, 0x88005100be620000U, 0x5ea858ad00U, 0xa84542c200005c00U,
  0xb7000000a05bU, 0x6b0000000000b100U, 0x965c00006400U, 0x3e3ba800b5c44c8bU,
  0xb70000U, 0x49b15452c30000U, 0x9800008eU, 0x4f00U,
  0x63463aa80056U, 0xaf9500970097629dU, 0x5600a60000a2b4U, 0xc0a6004faea2U,
  0xc4a3009100000000U, 0xa700c200000000U, 0x3a00a00045400000U, 0x52ab009265U,
  0xb600a20000540000U, 0x4363a08900baU, 0xa6a30000420000U, 0x3d00a56443000096U,
  0xa3000088bf00003aU, 0x6300003d0000U, 0x3a0000a9b50000U, 0x5e00ad00008d0000U,
  0xc4009c00b3005500U, 0xa500634a4c5d0000U, 0x4b00a3009c003a3bU, 0xba43b6000071U,
  0xb80000510000bfb6U, 0x5994006800454100U, 0xaabd0000000067U, 0x9eb400b8006277U,
  0x895d0000bf4b5bU, 0xaeaf5cc600005eacU, 0x3d00000083000000U, 0xa17eb58e004cU,
  0x5d00947800U, 0x61000000a6504b00U, 0xa1406e6f00009e00U, 0x3a63U,
  0xb5000000000000abU, 0x61a900000000U, 0x8498006800460085U, 0xc33a846aU,
  0xa3003ca4479b00c3U, 0x960000U, 0x6f566cb4505ab799U, 0x44005600U,
  0xb600009400U, 0x4f004f00009aU, 0x64b10000a4bbU, 0x9da8000041U,
  0x46a7ae953c523c61U, 0xa64c0000bd4f00U, 0x67003b00c3000000U, 0x5600c1bd00000067U,
  0xaa535200ba419000U, 0xbd006242420000bdU, 0x4f60969100003b4dU, 0x63b10000ba00408fU,
  0x40b8a45700acU, 0xa28baf60005900U, 0x4400c2005300929dU, 0x6b57ab000000bf00U,
  0x4e00b25548U, 0xa20000b25d008c00U, 0x8e0000005c9800aeU, 0x9000a00052950000U,
  0x58c1005700000000U, 0x7b565c0000006000U, 0x9300000000004d8aU, 0x8f53b742aa00U,
  0x49006c3a5d524eb5U, 0x5ab3470000000000U, 0xbd00a468b2000000U, 0xc4009b0000006300U,
  0x89a65c7d475e00U, 0x90009e00a49700U, 0x4400403d53000000U, 0xa300ac4700b6a8U,
  0x5500bdaf92U, 0xc6006600be005a56U, 0xb400000000U, 0x96a8005c00005500U,
  0xc7000046000000U, 0xae0000c09c44ae00U, 0x6500000000acU, 0xbb00b700006cb465U,
  0x9c6f004eaf000000U, 0x8e0000009a9a00U, 0xc75cb10000b1613eU, 0x4f6300509d000000U,
  0xaa5100c7a600U, 0x980000a500484b00U, 0xa75f00000000009aU, 0x9c5400b4475d00c7U,
  0x9462650000004c00U, 0x937000003f008abaU, 0x8e00008b0000U, 0x96983a3db4U,
  0xc2508a6356b7c2U, 0x3d84673cU, 0xb000000000ad00U, 0x3947000000bb0000U,
  0x5f00000000ac5e00U, 0x5d000000003a0000U, 0xbf005c00000000U, 0x6200a300004bU,
  0x43000089c5c00000U, 0xa2009b00U, 0xb95e008b00a700a1U, 0x5e00ac000000U,
  0xab008900590000a6U, 0x5400b5000047U, 0x39009e00a70000a5U, 0xa497000000000000U,
  0x43fbadf5a8a7fbU, 0xb1a74701ffcf68U, 0xfbbcacfe03ff033dU, 0x596145ab0002c9U,
  0x293c2ab000100ccU, 0x1029167fb00605cU, 0x2bc5841cf020267U, 0x6f49b30044009459U,
  0xc46600fec9000103U, 0x302c008000445U, 0x102006701fd66c5U, 0x9d473c35475a0150U,
  0x13c000300020070U, 0x2cfbd000500b043U, 0xc74aba3a02b1be00U, 0x55b5a54104003db3U,
  0x37fe00530036fd00U, 0xc8ba025fbc0002acU, 0x400a2023203cbU, 0x360000010202ffbcU,
  0x9c00a46660576302U, 0x3bc38004200f946U, 0x470000033339495fU, 0x3f83700b400b000U,
  0xbfc95affceaa9851U, 0xc3024bfbf5aa575cU, 0xad01a100020002c0U, 0xffffb9c05400ff5fU,
  0x470000fe4d46acadU, 0xd0a900fffffefdf6U, 0xf73dfc42350401U, 0x100023641c757beU,
  0x514d004400fafd53U, 0x2d46b5fe85fa0246U, 0xa604ac00025703c5U, 0x9db0640002020392U,
  0xb248fcc5ad69ffb7U, 0x549faf900c1ff5dU, 0x4c3002e000503c6U, 0x2ac45415afbc0U,
  0x1fd445f00af4536U, 0xa4b9d0b300fbb1feU, 0xc9ffa70202c10259U, 0xfaf9ff00b4fea700U,
  0xa2f8cb6af940c902U, 0x403f9c401fc6039U, 0xfe3bc102b8470202U, 0x1fef8c4cd005bfcU,
  0x59f808fac6fb3dU, 0xc3fc4a3df834049fU, 0xfafd47fb0037a3c5U, 0x4ffcb6ba5fff9000U,
  0x3a3bf903c15afb03U, 0x2ff37c7ffb2ff03U, 0xff55b3f6fe00ff01U, 0xbdfdfcfd3aaf33fcU,
  0x35fdfccefb5cfc00U, 0xaaffbc013ffbffc0U, 0xfb00c8f9ff37ffffU, 0x45fe0001aefffd00U,
  0xfd374600fefefdfeU, 0xfead2e9d02fdc703U, 0xba5f60ff4ebbffc7U, 0xb82dfb55fe9cb8fdU,
  0xfd01fd48fdfcb4faU, 0xfdfeffc84efcfefdU, 0xfeb9c6fe5602fefdU, 0x4bfd5c43c8000233U,
  0x2c53c9a4dfeb142U, 0x9afe3640d2fe4d5dU, 0x31fd500338fb0046U, 0x5900fbfcfab4fffdU,
  0xfefbffc1fc9b49c2U, 0xfbb7fea543a7fe50U, 0x3156b7fbfc54023eU, 0xfd9e014e00030154U,
  0xb0ff55fefda9fdc7U, 0xfe00fd5402fcc600U, 0x4c74354570254feU, 0xb692fbfe00fda1U,
  0x55be39caff89ad03U, 0xa5023f004af8ff58U, 0xcaff3ba2c5c60050U, 0x37fa0201a103fd95U,
  0xfff9f9c3fca69401U, 0xacfaa802fa0101U, 0x5900b7020000aaU, 0xff4f3694ff00893bU,
  0xff01f84afd45a9c6U, 0x3e0102bca4a50100U, 0xfe01bab036ff0142U, 0xa550000144feb29fU,
  0xffc4f90040018503U, 0xc4adf8ff43023eb2U, 0x35394f0302490051U, 0x2ba009457000000U,
  0x300fa03fe46c3b9U, 0xc6010201cb97c45bU, 0xfc49c0453567ff00U, 0xcbbc3ff9cc024e00U,
  0x1c2c3560043b701U, 0x30100b8f99e4e52U, 0x15fbb00024b02bbU, 0xf860000001003da6U,
  0xfe000058c45347c6U, 0xce044c5656be0201U, 0x4eb3cb4501b10200U, 0x46beb8b10000U,
  0x9f000001a80000ffU, 0x2544c00a75e0056U, 0xa14b0001fe0101U, 0x241000000000100U,
  0x46b800095ea3fa04U, 0xfa02b44401004b00U, 0xa4410000040302fbU, 0x5d00feaa050004abU,
  0xb94d320100380001U, 0x5d3acb00b2fb76U, 0xbafd38cf02a346ffU, 0xd0f7003c0100fd5cU,
  0x4300ca59f8c8ffU, 0x39b20150b6cdc602U, 0xca03fc00afb300bbU, 0xfbc5c0ffff04ab00U,
  0xc000000100025502U, 0x3500fb02feaefdU, 0x1064a96030100ffU, 0x4dffb8464600ffffU,
  0xcb4f00fea4c1cc49U, 0xfa0159fd92fe026aU, 0x658100b54304c2U, 0xf9ba744c52fe00acU,
  0x1004601ad02ff46U, 0x32c9f8f94ef7fda0U, 0x57ccff01fe4001U, 0x2c0fafa0268f9c1U,
  0x359b057fefefb01U, 0xfe3f36fbfcfe35adU, 0xc23ba6a001ffb6bdU, 0xfdf92e6452fefb50U,
  0xfaf703ac6829afU, 0x3399ffd01fd0033U, 0xb25000fc3802ac01U, 0x5300fcfbc261aaa6U,
  0x83b6fb50fb41c840U, 0xfefa0042fcb102fcU, 0xb800fdf903f8feb3U, 0x34fafbfeaafeb200U,
  0xc4c547c7c23efcc5U, 0x64ff9236fdfc0063U, 0xb405a603fd49fcaeU, 0x1612efbfe0039fcU,
  0xfa35c93dfbb8fcccU, 0xfa3f36fbfcfaa940U, 0x8bbf47f8cb35fd53U, 0x3fbafb03fcbdfc00U,
  0xfdfcfdfbfbfefbfeU, 0xfd33fcfcfd3aa844U, 0xfdfd5401fcc5fbffU, 0x3bfefdfcc399fbfdU,
  0x3502fd599a36fbf8U, 0xc5fd61fefd9b52beU, 0x48fcbbfdff9eb302U, 0xfdacfdfafe37b400U,
  0x4a7fcfe4efabf54U, 0xfcbdfcbd6ffd056dU, 0xfdfba2f7fe40fdc5U, 0xfb03ad9dfc4f00a5U,
  0xfd4a4ffecbb4fbf7U, 0x83003e46fcfdb603U, 0xbe583ffd59fe03f8U, 0xfa340582f865033eU,
  0x2fdfdaefcc0fdffU, 0xb451fbfc39ba5636U, 0x5fc0034010000a9U, 0x3b3f2dc4ff005bf7U,
  0x545a00008fbf0000U, 0x6200005a3e390000U, 0xab000000006693beU, 0x500000005b000000U,
  0xa05cU, 0x4100946600005200U, 0x5d0094896000U, 0x3d5147003ea0c1a6U,
  0xa6000049a26100U, 0x4d005100U, 0x9e40b10000U, 0xb35c0000ad00af00U,
  0x948d0092c5005d6aU, 0x5f51c500ad53bc9bU, 0xb6600000bbU, 0x3c90000000613c5aU,
  0x46a500bb00000000U, 0x8dc7006aU, 0x64a4b1b8005d54c5U, 0x596b99004500c500U,
  0x3d4995a5930000bbU, 0x92a60041b6c849U, 0xc443004d694a4900U, 0x3f005d00ba9d8c00U,
  0x4800694e4b000091U, 0xc5000000bc00U, 0xa60000b100000000U, 0xb80000bcc700b500U,
  0x9c00c6b8b3b4U, 0x670000c6004100U, 0xbd00000000b4U, 0xbe90630000b7U,
  0x62005c0000a6U, 0xc700000000bca3bfU, 0x95460000ae4885U, 0xb36aa4c5640000U,
  0xc4ba959b48460000U, 0xc4910000bf00b5U, 0x4400a300U, 0xa8908a0000004300U,
  0xc9620097a600U, 0xb0599bb400000000U, 0x46a500ab613aU, 0x5200c15e00U,
  0x624c5700000000abU, 0x9800008dbc000000U, 0x710044a200b60000U, 0x39c2b38900560000U,
  0x5f00008f9a4b0000U, 0x4500004958b64000U, 0xa10000005800a000U, 0xb9c800a2b4003eU,
  0xb5a1b500c500U, 0x9b004fU, 0x455ac5008e6ba6U, 0x3f00a40000005600U,
  0x9886000049004cU, 0x3ac40054c44068U, 0xc100004a000044baU, 0xbac6ba00a2000000U,
  0x8f00U, 0x9abc00005bU, 0x51c6bf00000041U, 0x670000004d000000U,
  0x620058ab00004dU, 0x934138005d0000U, 0x428ec49ba865U, 0x5b916c00630000U,
  0xbf9d00c0004000U, 0x50009d00U, 0x9ebdc969000067U, 0xb9395660000000U,
  0xb1af93000000a6U, 0xc0004a005700U, 0xa56600004455b900U, 0x9f39b8a600000000U,
  0xc10000008e005290U, 0xababa695c8b800b1U, 0x9c0000009600U, 0x430000009e0000U,
  0xb43893004800005eU, 0x8994a30043U, 0x9d006aU, 0x5e8800a700b78199U,
  0x9358006400b5b400U, 0x9f00000000393f54U, 0x655700ba009c00c8U, 0xb200000093b50000U,
  0x588c0000a85ca361U, 0xb300003dbabdb9U, 0x56005847b5b04eU, 0x8c3f0000ae3739U,
  0xa900c5bb0000a8b5U, 0xb200a800554fa9c4U, 0x64a00000000000U, 0x58000042a10000c3U,
  0xad0000995eU, 0x64925794008db3afU, 0x56b3ab00c39aU, 0xa40000929c000000U,
  0x9600000000b6U, 0xac67005500a10000U, 0x63924f009b00U, 0xa843b6630000b8U,
  0x4d000000005b0000U, 0x9f009c0000c20041U, 0x45009d00a34365U, 0x3ca1c98e00b800U,
  0x630000574ab20060U, 0xbf00c60000000000U, 0xa645005b00U, 0x595c00006000a000U,
  0x41009c00bdaeU, 0x64415f00a200b39eU, 0x98a400b9005dU, 0x4bc690000000U,
  0x4d00000000000000U, 0xa100bf9700c1b3U, 0x950000006abdb900U, 0x98009b004400bb00U,
  0x9660000000U, 0x5e643700b1960048U, 0x69005b0065003eU, 0x5042009ba6000054U,
  0x3f00bfa500a54aU, 0xa700ad374600009bU, 0xbbae00003cU, 0x3c9ba5005bc166a0U,
  0x9fbc000049009eU, 0xb3004e00b9U, 0x4e8d5e450000b1U, 0xb000453f00a0U,
  0x4b5f000000U, 0xb7510000009600U, 0xc94d544a4c00U, 0x49655900U,
  0xb300000000abc7aeU, 0x5a0000005bb4a200U, 0x5ca49a005600c6U, 0x38430000a0b20000U,
  0xba009787000057U, 0xafb8980000aa4f00U, 0x56390045a4U, 0x59590054b200c1U,
  0xc8840000U, 0x65708b00a300a2U, 0x55009bU, 0x84beb6000000003dU,
  0x43000000be000096U, 0x6069000000c2005eU, 0x4600000000U, 0xbb0000c59a005b00U,
  0x5caea300bd00U, 0x440000U, 0x594797003ea700a3U, 0xbf005900b700U,
  0x9e9400003a00abc3U, 0xc700ab004500bebcU, 0x438c61000042U, 0x3f00ae000049U,
  0x5a004500c50000U, 0xa8000000U, 0x5700005fc00000U, 0x4b000000U,
  0x490037a33faaaaU, 0xbf9b000000000000U, 0x9800c10066a44038U, 0x490057403700U,
  0x5300a200b6460000U, 0xc60000003f00bda1U, 0x57b64ea20000U, 0x6900b200afU,
  0xa9009f0000000077U, 0x5c0000000000b1beU, 0x59c4009ec1U, 0x4a47003b00a8U,
  0x3a0000b3480000aeU, 0x51a7b40056U, 0xaca000003d59ac00U, 0x510053004eaa48c3U,
  0xa000ba00008bb100U, 0xb15ab74e6fa8a0b4U, 0x939d65005200a5U, 0xb700b300U,
  0x39ac6861943a004fU, 0xaf5c00009cc5U, 0xc70000000000a6U, 0xb84800a0U,
  0x6400ac00009d0040U, 0x4e00003b0000U, 0xa782b63c0000009cU, 0x410000U,
  0x716100000000bc00U, 0x3cc6c00044U, 0x5c62004592005bU, 0x46adb400004f6800U,
  0x74ab00440048004cU, 0xa5c755004fbe558fU, 0x5a0000c300000000U, 0xc600004fbc009a00U,
  0xbf42006a604e00U, 0x55b200c600U, 0x9d00000000008d00U, 0x3d0000000059bdU,
  0x9fb19ba55ca800U, 0x5100a5009e5600U, 0xbe0000a2006a0000U, 0x5a00959000U,
  0xc3a10000ab560000U, 0x45c1a3U, 0x5100696141b60097U, 0x3a000000000000U,
  0x9c006c0000005600U, 0x4700bc55009d8aU, 0x96669e00b70083U, 0x670000005fc7U,
  0xaa00ba006fb9ab00U, 0x4300003f00000000U, 0xa33da7408300003aU, 0x9a005a56a100U,
  0x78007d450000ab4eU, 0x8600005a718ca8U, 0x530000004e0000U, 0xbd8a5f7839489500U,
  0x6f00009162000000U, 0x3b00bc005ec000U, 0x6c00U, 0x8900b27a00U,
  0x65c200b0009400b4U, 0x93569f0000b6U, 0x3f009500ba000048U, 0x99000000a4U,
  0xb646000000499cU, 0xa1a49eac008e00U, 0xb75757U, 0x8b000000a9b2U,
  0x650000000000U, 0x4095ae00acbb625aU, 0x4e004400485c6590U, 0x48003b00006b0000U,
  0x89ab614457008e00U, 0x9d00bfa5ae98U, 0xc35f00524c005200U, 0xab00a6009fac0050U,
  0x455861b50000ab00U, 0x4900a1b3U, 0xa15c000000000000U, 0x65bf0000000000U,
  0x649a00005d004800U, 0xa0004d0000934700U, 0xba4e3e95000067U, 0x6a000000455200b5U,
  0x6800000000a7U, 0x406ea1c4009fb100U, 0xbb00b16fad0063U, 0x4c4d0000be8d00U,
  0x5e00000039007200U, 0x7040c40000a8ab59U, 0x517c0000000063U, 0x9895000000a9U,
  0x51840000U, 0x9d00719ea35c0000U, 0x3d570000b6000000U, 0x49003fa900000000U,
  0xbd005c009eab00afU, 0x8100be989f0060U, 0x48b74ca08e005500U, 0x54000000000000a2U,
  0x850000c100U, 0xb100749b9b0000c6U, 0x549a000000390000U, 0xa75dc0U,
  0x4500bfb5000000U, 0xaa0000a900004fU, 0xa700000000985000U, 0xa9bf004c0000U,
  0x8b73009ca4007a9cU, 0xb80000c300009061U, 0x92005b00b0000000U, 0x490044569100c400U,
  0x3e000047000055U, 0xc790009800000050U, 0xb3bbU, 0x93008ca68d8f00U,
  0x4753560000964fU, 0x51U, 0x6d000000b1U, 0x590000000000U,
  0x8a00a10000U, 0xb40000450000978cU, 0x9000009100008ca6U, 0x9971be00ad0000b8U,
  0x650000006246U, 0xb5b7684cc2c145U, 0xa90000b045000094U, 0x9e5000bfa3430092U,
  0x5189000000c0a944U, 0xb69f56000000U, 0x624b00ad859a00U, 0x53a000000078U,
  0x4b00a890009c5f63U, 0xc300000059390061U, 0x9c00b37848ae5253U, 0x4b00005db300c342U,
  0x9aa3c2c2bca383U, 0xc30088005e000000U, 0x4d00b800004047U, 0x610042ae0000U,
  0xa65ca8U, 0x9a000000b1009ec6U, 0x8c3c9d53005b0000U, 0x51b5a10043bbU,
  0x41000000003d00c7U, 0x55000000b00000U, 0x89540090000000U, 0xa75253005c000000U,
  0x9b00009100000056U, 0xa000000047a1U, 0xa400953b5b0000b0U, 0x948d9f4291003ec3U,
  0x9c000073c50000U, 0x4a004000ad490000U, 0xc45f00390042669dU, 0x6798859c0000U,
  0x99U, 0x4200a64000000000U, 0xae000000000000U, 0x53005394560000U,
  0x4000005c0000b000U, 0x6fc7450000ad00U, 0xa100a000005000U, 0x8dc0a10082000053U,
  0x49a9bc000000b400U, 0x56a39500549c00U, 0xb251009600c50047U, 0x5b000096c60049adU,
  0x534b970000000000U, 0x4a5c0000U, 0x3d8e00415e004eU, 0xa19400005d00009bU,
  0x523b00496c004eU, 0xb054529d9194005cU, 0xb40000616f00bc9bU, 0x9b44ae8da4008450U,
  0x479f004b00008c3fU, 0xad00ac0000000000U, 0xc6b7000000009ca5U, 0xb4576c0000003bU,
  0x9764c29140566500U, 0xbb0000ae000000U, 0x978aae00U, 0x3fc5000000c00000U,
  0x6800480000000000U, 0xc73c00abbd003a00U, 0xb20000000040U, 0x580000a560bc0000U,
  0xc400a3b83dU, 0xb90000000000003bU, 0xae4b0000473900U, 0x97000000aa000056U,
  0x6200a8c10000b086U, 0x9e3f00aea6a30000U, 0xa80000ae86000055U, 0xb9000000U,
  0xb56600005200a500U, 0xbb00ba6700acU, 0x9e005a00b200ab00U, 0xb7b900009e00c200U,
  0xa68e0000ab00004aU, 0xa4000000U, 0x5a000045c03e00a1U, 0x68003800009e0000U,
  0x38460000004c923eU, 0x5f5baa475eU, 0x8600515c00b0b893U, 0x9ea56b0000008d00U,
  0x9aaa00b600U, 0x94000000375200U, 0x490000c20000c1bfU, 0xad005e9c00beba00U,
  0x3e390000005e3aU, 0x9d000056U, 0x5f0048a93bU, 0x5c600000008f57U,
  0x9aU, 0xb80085bb00005c00U, 0xbea83c000000U, 0x5fb3914d000000U,
  0x594eU, 0x3e539800ad000000U, 0x3939ac96U, 0x500000afadU,
  0xb7a2a43900004d00U, 0xb6be00000000a693U, 0x965aa8c04441af00U, 0x56009d5400bfa850U,
  0xbfbe003d00c45cU, 0xbc9dU, 0x60ac000000000045U, 0xa0005a00ac0090U,
  0xb3008f009a5100U, 0x879f000000000047U, 0x96be5795003c0092U, 0xb6004e00c14e5cU,
  0xae009000ad950000U, 0xa75aa6a63c00bc00U, 0xc3b05d004b00U, 0x8cc100000000a1U,
  0xb5a2bb000000a900U, 0x5700005bb59900U, 0xb00000beb29f93U, 0x5c00580000004800U,
  0x4c9144a700000000U, 0x8b4d0000afU, 0xbe0000b76b00U, 0x6951a98bU,
  0x8e590000ac008c00U, 0xba004ca3b4a700aeU, 0x45U, 0x9e8f00U,
  0x41a33b00U, 0xb9004b00c7a58fU, 0x8aa60039c34a6da8U, 0x880042006000bc00U,
  0x6d410000000000U, 0x3b40003a5f42U, 0x575e00410056a800U, 0x5a39000095a79c00U,
  0x530000985d00U, 0x564b000000009cU, 0x5c0063a200920000U, 0xad0000425300b062U,
  0xb00040b10050U, 0x573cb4009b9000c4U, 0xa19f00a5009749U, 0x91b9be5a005900beU,
  0x5100beU, 0x51ab00ae496e37U, 0x4000510000008aU, 0xb3a8ab8e0000U,
  0x4f00a5525d00U, 0x4d00a00000488d00U, 0x98b73a9200000000U, 0x0U,
  0x4000c598U, 0xaabdb2c000004600U, 0xae003d0000009300U, 0x52c79454U,
  0xa5976b003b003b00U, 0x56U, 0x55bd5800b0b04400U, 0x830063U,
  0x3bbd58005000bd00U, 0xa5ab0000006b00U, 0xa800009fb9bd57U, 0xc600a20000aa3c94U,
  0xb600U, 0xb10085003dc4U, 0x5e0049919dU, 0x55000000a19c00c1U,
  0x62005e40c700a3U, 0x8a00ba003b00a0U, 0x3f940000U, 0x5e0000004000abU,
  0x93005600000000U, 0xaf00009dU, 0x653e0053a600004bU, 0xa2b000b800000000U,
  0xa900450044U, 0x9600b8000000U, 0xa9525baa00U, 0x4e0000b7U,
  0x500000U, 0xa3000000000000U, 0x4200006d00008d4bU, 0x3e005e404aU,
  0x9f0000534e006b3bU, 0xad00620000c84aU, 0x9fc200003cbe4eafU, 0xa90000000000973dU,
  0x678d92005c003900U, 0x51b049a3003f00U, 0xaa003ea40058U, 0xb89600b4004e00U,
  0xbb0000000000U, 0xa8bd46006d0000U, 0x4800004d874d5ba0U, 0xad00c000c7004ac2U,
  0xbfaf0000U, 0xbe009d39U, 0x90c60000c5514800U, 0x41009800b7000000U,
  0x570000000000afU, 0xba8194bea0U, 0xb000000089c5af00U, 0xc000000049a300b4U,
  0x5ebf005900004fU, 0x60418cc2449da8U, 0xb9ac000000U, 0xc6006b00U,
  0x48c196ba3f00U, 0xaf3cb60000559e9dU, 0xbcc900006c000000U, 0x0U,
  0xa30000b70000a800U, 0xbc9b00b6000000U, 0x5c00003f0000U, 0xb4c28939000000U,
  0x0U, 0x9b985ea68d00c0a4U, 0x5e00be00009a6c00U, 0xb0003c00000043U,
  0x9c00b0008ec5U, 0x3c3e95000000554eU, 0xbf008c3900a5U, 0x42003c000000U,
  0x51585bc4aeaf5099U, 0xaf00000000b39000U, 0xb10095a4ac000000U, 0xc3970000004500U,
  0xbbba9a004000U, 0x4e00b0ba0089U, 0x58530039b85000beU, 0xc3b100U,
  0xc79a00a43a9c00a9U, 0x3e47b1003e41b6U, 0x4598bd5f4b0000U, 0x500057005d5e00bdU,
  0xbe94000039000000U, 0xa0563d0000U, 0xba9a9a00000000a1U, 0x6f0000a4a1b15cU,
  0x6100000000ba74b9U, 0xad0000U, 0xba6c00a3544800U, 0x8c000000c6c40042U,
  0x4a0000000000c0U, 0xb03b0000000097U, 0x989e62U, 0x416695U,
  0xa2839100a000U, 0x4cb15f00920000U, 0x5800009b0000b4U, 0xa8009a903f9400U,
  0xa1a500U, 0xb24b475200005c00U, 0xc400000000b95eU, 0xa50000970000b3U,
  0x4563a9004e00bac1U, 0xbab1b20091008800U, 0x7300609b0000U, 0x440000a50000006bU,
  0x8cb90094000053U, 0x7054009b4660b500U, 0x3900c185000000U, 0xb600009d00006400U,
  0xba0091000000b900U, 0x4a5c0000b3009a5cU, 0x414a00a64b0000bdU, 0x658c603dc4U,
  0x4454a60056000000U, 0x49484600b8a300baU, 0x53973a6700a597bfU, 0xa3005b00000000U,
  0x4f00c263644b0087U, 0x5a9e6b00006f00b0U, 0x5b00009c008e0000U, 0xb1600000U,
  0xbc0000000060c2U, 0xc2935200004b00U, 0x4b007b00860000U, 0x9e9b004b7200U,
  0x9bb0520081aa00U, 0x5ec3a60000000000U, 0xc7ab00669482U, 0x63000000c50088U,
  0x5b3c009e970000U, 0xa29c4045000000U, 0xab6300bc000000U, 0x4947000053000039U,
  0x3e639000000000U, 0x97b1c000009600U, 0x5100610058b20041U, 0xba00000099a18d5aU,
  0xbc5056003d8600a9U, 0xbaa10000000057U, 0x5c008900006200U, 0x9000a200a95e00b3U,
  0x4600000000003d00U, 0xc000a64b588768U, 0x413cU, 0x9b94000000003954U,
  0x964d9f4400c3bc00U, 0xa600a7008a009aU, 0x48470000U, 0xaab7b3a7000000U,
  0x8200c3866e009cU, 0xbb00000000424800U, 0x3eb9004c0000U, 0x4c00004295ad00U,
  0x46000000633c00U, 0x400000830089U, 0x5a008d00639300c2U, 0x628cacbec20052U,
  0xc300009400b18a00U, 0x99c4b7004f919aa1U, 0x5400b70000b8c500U, 0x72005e90bcbeU,
  0x4000b30084006892U, 0x858f0000c0003aU, 0x839e00005f00003dU, 0xbf0000000099c1bfU,
  0xb1540000000088U, 0x9100660000b69200U, 0xc4c70069009b8300U, 0x6158c4b6ac7aU,
  0x4c00a700439aU, 0xc700c400584900U, 0x3fa664bcbb004900U, 0xae0000b056U,
  0x8947005d6200a500U, 0x82c66aa7c600a800U, 0x448261b2003e5900U, 0x650000ae70U,
  0xc000b600510041U, 0x6f54006900585a47U, 0x9c00a03a5b0042abU, 0xb0a6009400520000U,
  0xaf7b000069007500U, 0xab00400000U, 0x62608f004a000000U, 0x674e6100b5a1c6U,
  0x4a526ea0003bb000U, 0x90ba430000004eU, 0x71bb009e0069U, 0x8b560093b300U,
  0x9a00c6a4000000U, 0xb39d660000004b00U, 0xc78e003a00770000U, 0x448fc70052009400U,
  0x4100659e00404790U, 0x43005b6a4200b7b8U, 0x924ac0005f00a4U, 0x90570000003c4eU,
  0x470000be626f89U, 0x5aa468005c00bba8U, 0xbc64465db85f00a8U, 0x4c00414b815c0047U,
  0x5800008b00000000U, 0x6a004f0066579c9fU, 0x4d0000a7000000U, 0xb700b20088a50000U,
  0xb400000000005cb4U, 0x4100af0000U, 0xc5c6000000ad00b0U, 0x9600004fa50000U,
  0xa05600a3007a7800U, 0xbb0000520000U, 0x53c20000b7U, 0x42656d00008300baU,
  0x9e000000000000U, 0xc35f865f9600U, 0xbf00005300000000U, 0xab000068a1620000U,
  0x9e400000c600bc8dU, 0xa80000af0041ab00U, 0x72520000000000a5U, 0xc29570U,
  0x9c64008a007a00U, 0x8500009d5d4200U, 0xb6U, 0x5c00b6U,
  0x5a006a0000a15da0U, 0x8e009b005c770095U, 0x9f82000000U, 0xa3960042c5670000U,
  0x4368008d0000a300U, 0x5363004a00004c00U, 0xa6004a0000a8U, 0xacad00bb0051004bU,
  0x569600ba000000b1U, 0xc052004d8e3b0000U, 0xad0000003dc399U, 0x92008e5000004eU,
  0xa9003e0000U, 0x6a643b0091c14100U, 0x4600a700008c0000U, 0xc500a84d4a00U,
  0xb8620000009a0064U, 0x9b0000ac44873f83U, 0x3b006000a80097U, 0xa94b008b008500U,
  0x9a00000000000000U, 0xbc0000U, 0x49b40054c6c40000U, 0x89004b00006400U,
  0x4a0000baa95100c5U, 0x3a005fb300490089U, 0xa200a50000005800U, 0xb900829600bf0000U,
  0x68a73f66U, 0x966964c2009b0000U, 0x9500000064000054U, 0x3eb6000000c6004bU,
  0x420000c6925142U, 0x91910000974600U, 0x50ab00920000U, 0x5200af62be49U,
  0x8600600063b50000U, 0x3b009ec000005800U, 0x4d00aec7af3a54U, 0xc5bd004200b1U,
  0xbda9008e00000000U, 0x900070000000b6U, 0x454c00b85a00b700U, 0x44b15ab700646aU,
  0xb1c4bba447U, 0xae859600000069acU, 0x89659e0000005258U, 0xb6000000c33e6300U,
  0xad524500b6U, 0xc700959fc4009000U, 0xc6c09b0000000000U, 0x4a0000000000U,
  0xc500b9007cb9a300U, 0x9957000000954b8aU, 0x4e4d00U, 0xc300c54500000000U,
  0x978d94000000af00U, 0xa74f0000bc00bfb5U, 0x4b43000000b48ec3U, 0x440000005aU,
  0x569ea292U, 0x429700c2626592afU, 0x9c00486e003c00a5U, 0x4a00000000000000U,
  0xb30093U, 0x4e6600009fc10052U, 0x5e000042008c39c0U, 0x5d9b000056afU,
  0xb10062c2U, 0x59634956abb5bbU, 0x578e7196b6U, 0x61004958a800afU,
  0x3a00003f00U, 0xc33b00938100bb00U, 0xbd000000003e47U, 0x8a4d00000000674eU,
  0x6100c29eb69500U, 0xb5bab9b1U, 0x6891000000U, 0xb80000a1U,
  0x4a9300000044U, 0xc000ba00004587a1U, 0x4900a200006c9600U, 0x9c005c4c0000009dU,
  0x454200be4f000041U, 0xa65b00008c46a500U, 0x6a000058423c4086U, 0x8f0000004700U,
  0xa500000000000000U, 0xaf690000000000U, 0xbd64620000009bb1U, 0x93950000500000c5U,
  0x4d005fc500000000U, 0x5bb7615e5c0054b9U, 0x435400006100aabfU, 0xa850006000c5a3U,
  0x85a38900b2008b98U, 0xa93a41a85700U, 0x8100a55c00U, 0x9c00a200ac009eU,
  0xb758000092U, 0xa7004600526297U, 0xa86248c75d9100U, 0x6b005e009b00c3U,
  0xb800000098000095U, 0x5c46b198004190U, 0xc09a000000bb5b00U, 0x43bb42b600b400a4U,
  0xb3009c63U, 0x96c20044bf000089U, 0xb864a200000058U, 0x3d009800b14ea746U,
  0x8b5e3d6d4bU, 0x58005a00c4c500U, 0x9900bb84be5000b0U, 0x6b4a5698c70000b8U,
  0xb73fc0b18d5600U, 0x446faf0067ac61U, 0x4200b485004597U, 0x4fa9000000c665bfU,
  0x4152000000000000U, 0x93bd0000U, 0x914e00576700423aU, 0x489371U,
  0xb700600000bfU, 0xb59d004eU, 0x5152550040000051U, 0x7439U,
  0xad9600a600636caeU, 0xa3000042b68d5eU, 0xb20066a4a660004eU, 0x490063000000c6U,
  0x60a20043995097a2U, 0xbac45800009f3d00U, 0x89960063008a00bcU, 0x550000004b00004fU,
  0x70005800a500U, 0xbec5a44a003e00U, 0x910000000000006cU, 0x655ebd00006000U,
  0xb60095b77144U, 0x8a0000000000009eU, 0x9b00b59a009e5b91U, 0x6f00000000000060U,
  0x468d00b6be4a6eb0U, 0x4b0000af549e0000U, 0xa7700096610000U, 0x9f005f6dU,
  0x3c009800U, 0x930086U, 0x6f0043a200U, 0x8a009ab400b056a4U,
  0xb900006300520000U, 0x3b0000ae004e0000U, 0xa8009abb00003f00U, 0x4e0051949ac762U,
  0xba00000000U, 0x3c48c7bc9e000000U, 0xb40000539d9f60U, 0x4e87009856478700U,
  0xc351955d0000008aU, 0x5b00000060ad00U, 0xac006d00b4450089U, 0x71b8433900000067U,
  0x5300000000005c00U, 0xa0559c000000003cU, 0x5a00000000a40000U, 0x3900004000b33fU,
  0x5d9e3cad45008eU, 0x41b8ab00000000U, 0x54000000a40039U, 0x950000000000a5U,
  0xb658c24d9a46b242U, 0x93aca239be530000U, 0xa0b08b00000091a5U, 0x5fa400009aU,
  0x52a9004d003f4dU, 0x3d00545caf0000U, 0x3a006a8f000000U, 0x84009b8e8bc46100U,
  0x61000000c0000000U, 0xc1a200524eabaa66U, 0x5d459d96514900U, 0x8700c43fb6b90000U,
  0x8b0091bda00000bcU, 0xac95a200000049U, 0x400000006d67b2U, 0x5f00000086005b00U,
  0x3a5b003d91ae0000U, 0x63b9c79600008800U, 0x8b009c8400c1U, 0x9f0000b1000000U,
  0x5e3bad00000000c5U, 0xa24b0046a400U, 0x62000000aaU, 0x9869874a00b294U,
  0x9b00510000000000U, 0x3faaa25f00c595U, 0x59b800c6a000a4U, 0x6000b16200ad0000U,
  0x86000085a9644e39U, 0x5249570000a05900U, 0xbc909c55005a0069U, 0x94003e5e00baU,
  0x61000089000000U, 0xba00b086U, 0x3e00c200000000U, 0x863e008b8f00ad62U,
  0xb49a0000c246U, 0x6700a4004d6400U, 0x8b004bb800b7U, 0xba0000489d005cU,
  0x4745006d8c0000U, 0x54ab0000a3009fU, 0xc400000000b20000U, 0x616348410000b853U,
  0xc50057aa54584abeU, 0x69008d00004bc400U, 0x5e000000aca10064U, 0xa300b500000000U,
  0x3f00b7U, 0xaf8b0000a80062b2U, 0x538900439800b100U, 0x73006eac860000U,
  0x66004d6400499b46U, 0x984e4763a30000U, 0x6e004a000000U, 0x9f004497U,
  0x6d00a569988100b0U, 0x8550c3005f008200U, 0xc0004e6954945b00U, 0x6a00b0a8U,
  0x94000000005100U, 0x83004a00629b00U, 0x57615b9000006300U, 0xa843005ea73d4700U,
  0x6fb3c0004a0000U, 0x645100U, 0x7000670000419700U, 0xa2004da2U,
  0x924c3e004ca2483cU, 0x83b960baa5000000U, 0xba59996400U, 0x9559635785000000U,
  0x96adab0000460057U, 0x9f4900008e0000U, 0x9e85a7600000a3U, 0x5e0000aaac0000U,
  0xba000051c4885b00U, 0xbf95ae00006b00U, 0x900000a1008cU, 0x4100005f54500000U,
  0xac6500a481000000U, 0x4b003fba9e67adU, 0xa96d5f3e0000008cU, 0x9869563d3e0000U,
  0xc39566004f0055U, 0x93a1a7bcbc9f5d55U, 0x9b003cab418a6a3fU, 0xba7491420000b6U,
  0xb5a76b00000000U, 0x4a639f005a00U, 0x3b0000bc009500a4U, 0xac000000009b0082U,
  0x6b5b6bc30055ae00U, 0x5000000000640000U, 0xb88b009d6ab8004aU, 0xa46157a6bc59a9U,
  0x65008ea7a04fb574U, 0x558f0000b000b000U, 0x8c0000000000c152U, 0x3e000000c43c00U,
  0xa40000U, 0x72900000b84aU, 0x69004c006700c4U, 0xb60000bb43000000U,
  0x99009bb692536300U, 0x4d526d00U, 0x69b2005baf9b508cU, 0x810093005ab40042U,
  0x4600983f008a95U, 0xbd950000bd00a6U, 0x920000003ca9U, 0x9c00a80000b7b9b2U,
  0x558a5242690000a9U, 0x978fab47716a6eb7U, 0x9a00000000ac0000U, 0xa9474b5c005cU,
  0x6800004e59000000U, 0x40008b3c4300a097U, 0xbe8b00c50000a900U, 0x6a5769b95bab6447U,
  0x880097bd00b087a5U, 0xb10058005a005400U, 0x600000434f9f40U, 0x91008c004300008aU,
  0xbb00b20051008f00U, 0xab0050af0000U, 0x630044b74d0000U, 0xa8c400009aae0055U,
  0xc00000be41000000U, 0x5f00810000aa00U, 0xaf0000b2000099U, 0x8f00000000935347U,
  0x41b20000a88c0000U, 0x9b00bc815d4dU, 0x96U, 0x4e000000008f8200U,
  0x5bbe009cU, 0xa200000000U, 0x98ad009200000056U, 0x9500a06ab900bfU,
  0xb4000043b20000U, 0xa800009700U, 0xc09f9d005ec1009fU, 0x5100974aba0098U,
  0x96000000000091U, 0x704900b2U, 0x8bb867000066c400U, 0x5ac1bc0000004869U,
  0xc0c543478fc40087U, 0xba0000ae00008558U, 0xb0004ba0008500beU, 0x51006aa3b2920090U,
  0x94004b0066510065U, 0xb7005e6700003e95U, 0x6f00abU, 0x9700b090b59800bbU,
  0x4c00000065af00U, 0xb1b9000097620094U, 0x6700b36c005500U, 0xb600afbe3e5300U,
  0x5800953d0000U, 0x83760062000000U, 0x735e00004594006bU, 0x60000000008f004aU,
  0x7400004d00006500U, 0x84ba00a400008400U, 0x4e49759300b500U, 0xa9b8a6a5000000U,
  0xb800c00000008c57U, 0xbd00930000598f00U, 0x569a958b000000baU, 0x6400680000000000U,
  0x630000860000b4U, 0x8b5700b794U, 0x49c200abb1000069U, 0x55009800ad74b293U,
  0x7100630064000000U, 0x420000bc9da90069U, 0x4daa008b53003dc3U, 0x860054000000U,
  0x969a005d00680000U, 0x9e0000008eb3U, 0x5a00009c00650000U, 0x9e000000U,
  0xc35200U, 0xc08fa265c1a800U, 0x48000000004100U, 0x3cab000000b3c100U,
  0xbf000000003cU, 0x53c4U, 0x954161c000aa00U, 0x84b0ab00000000b3U,
  0xc4000000b75bU, 0xa900a9000000a8U, 0x9a9c3d565200b944U, 0x41005c005300a300U,
  0x8b00004800000000U, 0x99535f00a100U, 0xa6af0000000000b3U, 0xc2000000b2000000U,
  0x830000000042608bU, 0x6200a9b48d644400U, 0x930000008100b5U, 0xbd005d0000ad916cU,
  0xa65b94b592bf5500U, 0x430000004d6b6866U, 0xbe8700000000c1U, 0x428d0000009200aaU,
  0x4c0000b53cU, 0x4300884fb0004900U, 0x685f000000ada300U, 0x8d6da40000009cU,
  0x5000009f00600000U, 0x4b00000094U, 0xc763008d89b500U, 0x67000099a00000U,
  0xa400c0004300U, 0xa6435d00004600U, 0xbf00b800c868a6baU, 0x6b39965d0000aeU,
  0x58000000a000U, 0x9d009e4c0000a253U, 0xae006900be00a100U, 0x974d920000004db6U,
  0xb0004c91c5bb00U, 0x448800000043004dU, 0x4fa600400000U, 0xae000000b598b5U,
  0xb9006200c200c2adU, 0x9b00470000649700U, 0xad6b4339c5c3U, 0xbb9bc50000000000U,
  0x6f50ab459c00a300U, 0x5d006fc8000000U, 0xb79c006e0000a540U, 0xa80054893f00U,
  0x4f005400a9U, 0x874248004300U, 0x60000038004bc000U, 0x5b0000000057b5U,
  0xbd0057bdaf89b900U, 0xb7b69b008b560000U, 0x41c7000099000000U, 0x93405600000000U,
  0x4200006f7357U, 0x94b573000000c7U, 0x7300b20000U, 0x923f000044000000U,
  0x45009d0000469fU, 0xc800b500004e42U, 0x5900000038a400U, 0x46000000549100c4U,
  0x584967a200abU, 0x50980000b500b300U, 0xc2009aa000000000U, 0xc03d9e96395f3b00U,
  0xc80000834655a600U, 0xbe39009d8b9b51aeU, 0xae535b00b000be00U, 0x8300000000008800U,
  0x5339c400ad44U, 0x8843509d590000U, 0x908e004200549eU, 0xa146004596U,
  0x60b5009500875b00U, 0x43000000ac3800U, 0x8e00005700U, 0x8e00b2b7c10000U,
  0x5a4f000000a385U, 0xa05700b7620097U, 0x8f00008a5d58b500U, 0xa4000000000000b8U,
  0x5100949300b300U, 0x3e008e00000000U, 0xba005d0000a6c700U, 0x8b000000419fa5U,
  0x6b004452000000U, 0x469900b7008aU, 0xafa19e00b0550000U, 0x48000000003a00U,
  0xae0000c03bU, 0x6f000000b00000b7U, 0xb2009cb00000U, 0x6aac3a40U,
  0x67b7a600650000U, 0x5040008f000059U, 0xa200865f00583cU, 0x3ac40000000000U,
  0x5a4a0000c0418dc7U, 0xb8b13c55009d00U, 0x3800874e00U, 0xbf94008d5200adU,
  0xb600448700a2ba00U, 0xb993510057984700U, 0x4600000000000000U, 0x954d00004c00003aU,
  0x4396a10000c0U, 0xc100b000620000c8U, 0x680041550045U, 0x42b559004200U,
  0x3ba9000060513900U, 0x638c000000000049U, 0x39b9005700b3a400U, 0x74434c0000aa00a2U,
  0x9600000000000000U, 0x43003a0000005d57U, 0x38000000b285U, 0x52a500c800000000U,
  0x65a3U, 0x4f9f0000c5000000U, 0x4e003b0093008600U, 0xa1ad00509c000062U,
  0xb0bfc5439200a700U, 0xa23a4000000000U, 0x9eaa00bb005f3b91U, 0x3ab3410000004fU,
  0xbc49005f5300U, 0x81000093ba00U, 0x5100390048b00000U, 0xbf00bd0000b8U,
  0x91003e00b400U, 0x52000000000059U, 0x910000009c85U, 0x444b000039940000U,
  0xab0000bf94006a50U, 0x99473b00a9bc005bU, 0xad00006100ac3900U, 0x5f005d9a000000U,
  0x9f00974e9f00008dU, 0x430000468f009500U, 0x410000a53eacU, 0x629f004700b1U,
  0xb35a005a00afU, 0x73a8ae4d00a9a200U, 0x550000b60092994cU, 0x4f6400b800ad3cb9U,
  0x914800005c5f00U, 0x4e0000c14c68b500U, 0xa60000bc00a84483U, 0xc100000000000069U,
  0xbb595a0097009eU, 0xaa554a000000b039U, 0x6b00bd005c3b0046U, 0x3aad530094009200U,
  0xb5005b009d526900U, 0x6b45bb000000U, 0xbd4fa09d5c00003dU, 0x534b00a8003e4900U,
  0xaf8ac200008c44c7U, 0x5c3856a600000053U, 0xaeb1988f00U, 0x540057aa00c1c443U,
  0x960097006c00U, 0x5e6ab0004f5700U, 0x91U, 0x460000a500a1U,
  0x8e48ae000000a1U, 0xa93d00009f003fU, 0xc60065b34a0052U, 0x5d008a3f00ae00U,
  0xb900909900b40000U, 0x86a90000004800c0U, 0x8f0000000000U, 0x0U,
  0x380000b000a7005cU, 0x6361a65800a00000U, 0x468d660041005aU, 0x3b0000003800b3U,
  0xbca2c2b90000U, 0xc056004bc3b6acU, 0x93af4e009a443f00U, 0xa400440000a5b800U,
  0x99a538b800a09200U, 0x6b0045508a50b2U, 0x3eba9545000000b3U, 0x4f0000005c00U,
  0xbc000000000097U, 0x4800bbab5000bcb4U, 0xbb0093536f420000U, 0x92a300000000U,
  0xa700008b9cab00U, 0xaf000000c5c40000U, 0x56a29f0055bc009bU, 0x9f0000bb004da4U,
  0x849700bba3005cU, 0x535b5600005300U, 0xb800b45ab74665U, 0x5c004f0000U,
  0xc74abaa5a19400a0U, 0xa600a38cU, 0x3900975100U, 0x51000047b6584f62U,
  0x4800a29139830089U, 0x8e956800000000U, 0xaf440000000000U, 0x3e0061beba000000U,
  0xb200c1U, 0x9c00009a00ba0000U, 0x3b000089ac00U, 0xac00008eb3000049U,
  0x62a14800b8840000U, 0xb94c0000005500U, 0xa200000000U, 0x9a0000554dU,
  0xae00000000960051U, 0x9baca7ac005600U, 0xa300ba00ae00U, 0xb1ad00004a0048U,
  0x4d003a8aa194U, 0x5044a0009fc7U, 0x8e00000000928200U, 0xc20000004a00U,
  0xa858005d9f0000b3U, 0x6fab004c5eae4463U, 0xaf610000c600bdU, 0xa8baU,
  0x52b9a90000000000U, 0x5b0000000099005dU, 0x8200a40000003900U, 0x488f900050000000U,
  0x49389a0051abb0beU, 0x5f47c4a50000U, 0xb8000051c00052U, 0x85009aa249004fc5U,
  0x9600ad004b44U, 0xb23e81a100c296U, 0xaa000000925b003cU, 0x480000a00000U,
  0xb28d0000009f00U, 0xbcab008b00afa1adU, 0xb200c50097U, 0x470000b34700U,
  0x9500000000aeU, 0xc34f00c5525200U, 0x9d0000bf0051U, 0xbd00000000a8009aU,
  0x9854a164000000adU, 0xa55a00b5a6000000U, 0x5b86ad63bb0000U, 0x3d0086a367003bU,
  0x408e00c4c800be94U, 0xab50af9300004d00U, 0xb500005f00U, 0xbe9500000045U,
  0x475a00b400a7c13fU, 0xa19b0000b7000000U, 0x5c5894380000a5U, 0x5800c652U,
  0xc6000000a0930049U, 0x42538f0000bf00U, 0x95539200564746U, 0x5c008b0000000000U,
  0xbf00aa00810000a5U, 0x8f9b5d0000406900U, 0x99bc5b00005c52beU, 0x4b3f9c0000000000U,
  0xc8c7000000488c99U, 0x495fb4a90095c100U, 0x698500929bc700U, 0x5b00004741a09a00U,
  0x3f4b470000c5adU, 0x8993004600000000U, 0x5b48c33c61000000U, 0x95480000003e5e86U,
  0x4400a8afb4U, 0xb9000000008d006bU, 0x533ab15700519cc5U, 0xbf4700a30097U,
  0x8700b38400af00c7U, 0x8b00b0bd8b000097U, 0x3f00ba959c42a400U, 0xb2009400000046U,
  0x8c00009ea200a900U, 0xa00000b800b80066U, 0x8a380000009ead5cU, 0x5500004b40005b00U,
  0xc48b00004c0000U, 0x9b00499cc66d00U, 0x53000000b30000a1U, 0x5cbea2000000b4U,
  0x5f0000b35700U, 0x9c00000060a7633aU, 0xa138b796000000U, 0xb6005aa100968900U,
  0x39000000005553U, 0xb400556b00a40000U, 0x5700000000ae00a5U, 0xc700006900009f4fU,
  0xb600000000008eU, 0xb2000000000000bfU, 0x4700000000000000U, 0xc8b39a009b00U,
  0xc1ae3aa25c006459U, 0x6b00004f42000000U, 0xb200af00838c41U, 0x445100468d00U,
  0xb74ba80048005eU, 0x4c00450000U, 0x84a100000000443dU, 0xba000068c4ac0000U,
  0xc643c438000053U, 0xb100b50000004aU, 0x8a0000a400a500U, 0xc4b80000af00b900U,
  0xb86400a80000003fU, 0x56b9564f0000a300U, 0xb000000093000095U, 0x4466a54e00005f67U,
  0xb6003c00a1a4c500U, 0x4c45b60000b500U, 0xbe003c000097U, 0x5c0000a400000000U,
  0xae00b7c0U, 0x9293000090000000U, 0x8200000058000000U, 0x5000003fbf0000U,
  0xaec200b66000a500U, 0x5300610000c50000U, 0x98c0005059009d00U, 0xa5b69100000000U,
  0x3b85009400U, 0x830000890000c39eU, 0xb0000046U, 0x9400000000b23895U,
  0x85b30000c400b3U, 0x4c003bU, 0x45005a000000U, 0x5b92bb97006500U,
  0xa8c3009c3ac7U, 0xb59a004155c40000U, 0x88005b005300U, 0x430000aa3c98U,
  0x51005bbe003b00U, 0xa0b10000U, 0xbf524cbd006a0000U, 0xac000053a700a400U,
  0x63000056aeU, 0xbac2909887009bU, 0xbb00bc3b00a40000U, 0x830048989543U,
  0xc3a300c60085b4U, 0x5cc300005a5ab0a1U, 0x5b9d8c00c300aaU, 0x400000c55000a8U,
  0x3a00b30000435d00U, 0x3c5100a9830000adU, 0x5ba10000b34dbf3dU, 0xad940000009f00U,
  0x40c6004e00009fU, 0xc7af009796985cU, 0xbc00009a0041U, 0xbb0000000051U,
  0x40009fU, 0xc895b5b80000005eU, 0x40a9004300b295U, 0x53b3005000c15300U,
  0xbd0000ba853dU, 0xc800c6000000c200U, 0xa5000000000064b0U, 0x41400000000000U,
  0x9f009e000000b200U, 0xa4000000000065U, 0xc76c000000000000U, 0x6100554592644100U,
  0x48009400000000U, 0x614cacc0000092a9U, 0x9fa6ae000056006dU, 0x9e00c7000000U,
  0xb051005c99009885U, 0x6500a20000a3U, 0xc1000000a700c6bbU, 0xb8b2000000ae0000U,
  0x6900c4b500000087U, 0x4e00460053ad3c40U, 0x3aae00b98d0000U, 0x4aae000000U,
  0x96a9000063U, 0x5c000000a6a5003dU, 0xa5376300aea40000U, 0x4800000000000000U,
  0x59a299586585U, 0x3d0000b00000U, 0x3f000000acU, 0x6300c500a7840000U,
  0xc1a700c1004d53U, 0xb54b00555f0000U, 0x840000008eb20000U, 0x610000af4200aeU,
  0x6a006a0000a1b8bfU, 0xba63000000U, 0x92b3576000000065U, 0xa1000000a6ab0042U,
  0x52b7c6000000U, 0x925463be00005245U, 0x39003b008100ad00U, 0xba49a6953d0046baU,
  0x9d009b0000549e52U, 0x9a930000b18900U, 0x540000005cU, 0xaf000000b2b500U,
  0x8900b8000000a600U, 0x49003a004400b655U, 0xa3005400afa10000U, 0xa751c35b3c9000U,
  0x66009e004eU, 0xa600449c00U, 0xb0ae00004d5600U, 0xc8c600b800000000U,
  0x9f5692bc009e00U, 0x4b004a5989630000U, 0x4800003a0088bbU, 0xa0004d005aa35c00U,
  0x9e0000840000a800U, 0x625dc400U, 0xab3a00b900009200U, 0xb49900ba0000b700U,
  0x8e0046a06d0000abU, 0x4000b7008500af8bU, 0xa40000U, 0x940000U,
  0xad410000c5000000U, 0x9d4c006da900U, 0xb5009900c6U, 0x9e4b94afc60000U,
  0xab9747000000a464U, 0x4500000000b1a0c2U, 0x3800000000008c00U, 0x8558460000880000U,
  0x9200003a4c55009bU, 0xaf94b09c0000b4U, 0x674da24200000000U, 0x9cbab50043570000U,
  0x825f000000U, 0xc33d0000b993U, 0x9800000000004d00U, 0x6b5344000000U,
  0x59006400ab000000U, 0xc4c0be0000009500U, 0x9700005c3b4300U, 0xb600a796004dabc8U,
  0x9eb40000c2000000U, 0x380000950052U, 0x9500a800000041U, 0x4300a500376dbeU,
  0x9a00c2000000U, 0x54444dac51c06594U, 0xad000092ba00U, 0x8abf0096ac5eU,
  0x4c00bbc60000004eU, 0xb400000000b900U, 0xa33a4900b68546U, 0xc73d9c00006dU,
  0x440000009e0041U, 0x9b00c3b6443d00U, 0xbbb0c76098000000U, 0x41580000U,
  0x4a0000000000c300U, 0x9300c20000be0000U, 0xb740509b5cb0U, 0xaf0000003e8a0067U,
  0xb44abc4800a85c00U, 0x47c03e00a54e0000U, 0xbb0000009200003cU, 0x69008fa6909900c0U,
  0xa8005ea65d00c9U, 0x95a3a9000000U, 0x8a00440000005c9dU, 0x93000000b03d5cU,
  0x46af3a4c5ea7005bU, 0xc2a6c500b54a009cU, 0xb7000000c4b06800U, 0xa900000089850000U,
  0x67b00000533fU, 0x923e5f3c000000U, 0x4400495200b748U, 0x4e00009300U,
  0x8200694600U, 0xad91000000b38f00U, 0x959600000041U, 0x65b9000052baU,
  0x400000b0b892ada6U, 0x9e0000000047b900U, 0xb50051003800a263U, 0x5400009fc60098baU,
  0xa4b0000000a5004eU, 0x420000009600a989U, 0xbd4794ba00594500U, 0x59004600U,
  0xb900c9b95c5dU, 0xb287000000c5c400U, 0x4200000000c600c7U, 0x4d00a200004f536cU,
  0xa63e00b1393b6387U, 0x52000000c65b0000U, 0x9d92005200473dbdU, 0x9e00bf00b400U,
  0x3fad00000000U, 0x9d00008aU, 0x58000000005dU, 0xb2500000a5003bU,
  0x5a00ba0000566686U, 0xae5c00510000bcU, 0xb4000000b600bfU, 0xc5820000009aU,
  0x6400a7c29a5a5b00U, 0x5e000000b0bbU, 0x5d5eb80000a300U, 0x98000000008aa800U,
  0xb900004e0000ba5dU, 0x9900000000aead00U, 0xc245bc00b44b00U, 0xb2940042000000U,
  0xab00579b005cU, 0x810000950000a1U, 0x0U, 0x578f0000009658b7U,
  0x9c5400U, 0xb65d5a45c8U, 0xb90000c44000U, 0x94990000000000U,
  0x99c6000000c40087U, 0xb30000000000U, 0xbec60000af4249c5U, 0xa8000068a800c700U,
  0xb900006b00b639U, 0x490000b3a3bc00U, 0x55000000c30000U, 0x4c9e00004ea4U,
  0xb993004500b94800U, 0x8e006dba00af0050U, 0xb50000b700000051U, 0xa30052b648570000U,
  0xbe4a00c9009d0000U, 0x4100ad460000bda3U, 0xb10000a900U, 0x4600000043a46a00U,
  0x8f9a000000b69889U, 0xb09548000092U, 0x9d0000b600bc00U, 0xa0004c00000040c3U,
  0x19006a3de83f3ba2U, 0x33220c24e1bb433U, 0x5ea9391bed0afc00U, 0x454bd5f427020342U,
  0x46ec17f05af75ef4U, 0xaef63f3204450005U, 0x10d0010cdc828acU, 0xfb2c36049ed40d00U,
  0x6000dcc3f2e3cfdU, 0x1c8fc0b0b2ac0d0U, 0xd3d000aa3befe00U, 0x3403f8fcca4229U,
  0x1cacdfc00a32ef9U, 0xa9304d00c2c300acU, 0x40f00e539bdfda2U, 0xf6440000fc00052aU,
  0xca06c10a0004b902U, 0x8fcfe4d5e02332fU, 0xb63103f908fb5eU, 0x4e53febd2ecb0a4fU,
  0xfe00ce2f00fcb5c9U, 0xfed645450437daceU, 0x3a060042d5cafffeU, 0xb30f50b9fdd803ffU,
  0xbb4900f92e0d4344U, 0xe995fa391402fef1U, 0xc7cb1000fb36f6d8U, 0xedcb705062ffe00U,
  0xfbc2332b4bf900faU, 0xfcfc5106073ee1d5U, 0xf64e000b9cb2f7d0U, 0x403a4f09fa003712U,
  0x3be05ff00e46e04U, 0x6a2ab327510eaa29U, 0xef6a03c000b20dU, 0xe21acad203ad00ceU,
  0xa430ed9e47f117efU, 0xc8f26d5507160eacU, 0xf64e005bf126eff4U, 0xfd0c631bf0a3551aU,
  0xa0f1900131545d8U, 0x65211dfa0e18efcaU, 0x50b76011ad37f60fU, 0x16563cc9002b4fd7U,
  0x2951669f1d2878f3U, 0x9df6ee13d1150f39U, 0xfefc0000f4c5fbf3U, 0xf70fdd5caa001364U,
  0x13b3199e1acc3ba1U, 0x113c33046714cb29U, 0x17004317f6000052U, 0xd71300b73b00fd36U,
  0xff6843fc4d3e15c2U, 0xf8fd145407540ffeU, 0x4200d6000001f8U, 0xf64814e03e00d13fU,
  0x5b1013ca40104b03U, 0x1241c053df5dffc0U, 0x13bcca5ba7000011U, 0x1213009cfe00fe00U,
  0xba53140012b81000U, 0x410f3d5d12c0U, 0x100c20030b900U, 0x30f163e00b3d714U,
  0xdf14123a133fcaf7U, 0x660097340c438dd3U, 0x13b76111d2470012U, 0xe4e3cbfefdd7b700U,
  0xb312d900140010cfU, 0x64142ce6144aU, 0x380900072e003800U, 0x3012171335001260U,
  0x120f560a15d6122eU, 0x5bffd3473e13002aU, 0x4fc6eb3d020af80eU, 0xd317c8d53cb2fc00U,
  0xf715d5cb162d4fafU, 0xb32c5c15b1445c06U, 0xf259d00f273cfecbU, 0xbd091d1401b6115dU,
  0x1101150b42610c31U, 0xec9c0fd0e1837f5U, 0x4ef91a479d3ba7fcU, 0x60622d2abfce052fU,
  0x118430166d3deccU, 0xf9f81a4700e700d2U, 0xac540010f32a232fU, 0xfc001719b5a713f0U,
  0x6d39190819030b39U, 0x3ff3f003bfedabffU, 0xecf92615f90af52cU, 0x111b3cff013206c7U,
  0xff1b1bfa19f178eeU, 0xc0f11907b5d64904U, 0x271046e4f12ef325U, 0xffb20271f1d40d3fU,
  0x40b917df5ab400fcU, 0x4ef9fa570d77eeb0U, 0x4bb14b1aef07fecfU, 0xd9024545f73d584eU,
  0x4213182040f93126U, 0x9ba909cbfcc13308U, 0xd60c00439e00fbf3U, 0xd5004c0026b70b00U,
  0x6000305d2b800fbU, 0x4dfeac04e148f8ccU, 0x55bdb14a3409aab4U, 0x3f049af8030247U,
  0xff3634fb00262fc6U, 0xfe2e43b6facb2ac9U, 0x23e000d0104fffcU, 0xf5040000fe000200U,
  0x2a0f35fdb1510742U, 0x472a3b02d4fdfb3dU, 0xc12e00f8013313U, 0x635db372cfc00U,
  0xfb0034fe3dc200a6U, 0xc1ffb200d94510fdU, 0x2a0c000a2b4d0000U, 0xfbd80000fd0037b8U,
  0xc50fc2d4343fe507U, 0x1cab2b001044a5f3U, 0xfa18c5afc1c946U, 0x1518b304061d03d4U,
  0x3200a93101b4d3faU, 0x34fa02d1d60711feU, 0x960a5c09f5b830a4U, 0xc50f490f2dce52e5U,
  0x34cfd9d64653d906U, 0x141bb7010fcaf8b5U, 0x2f9c1ac0fc2fec0fU, 0x5619f840d83003d7U,
  0xfd054b994af01a29U, 0x26f27648061837a7U, 0xb8030006ee46f01fU, 0x3b0e1b5cf0003c6fU,
  0xd43f17ff55146dcdU, 0x45f6270dd95eb8b4U, 0xbc71415f235f7d8U, 0x16e4312f0533cd00U,
  0x571d7f885af41bf3U, 0xee2c185f0849e726U, 0xe2b16f8d2f3f1U, 0xfa0c1518f0d14b5eU,
  0x18d217fe1a5d4907U, 0x5900ff3b13169acbU, 0x18003d1cf1003911U, 0x12e743fc033344c7U,
  0x3e4512b153ed4f8U, 0xc6a715130746cffeU, 0x3f33bd63000000cdU, 0xf30e4464ff355bd1U,
  0x110b463bd3530effU, 0x1000000438d6d200U, 0x15d0113fab033e46U, 0x5b1350f3b4493eceU,
  0xff6c1300d30056aeU, 0xb900c911fc130ffcU, 0x6002f00d6c500U, 0xf95e1358d4ce0f10U,
  0xf0d1302eb1251ffU, 0x1548bdcd111100aaU, 0x3d01e51200a80059U, 0x6915be00bffbf200U,
  0xa711550013b158cdU, 0x445611ca1348b4U, 0xc55b4b5000bd4f00U, 0xfd0e1513b8c51314U,
  0x42ba124711611700U, 0x15fffefacddb45c1U, 0x12fc4dceff0af517U, 0x1417a035d7b65100U,
  0x3b13600013ff3a00U, 0xcb43df1700190c03U, 0xf10f2e0bfff6fad6U, 0xff011b1732b34319U,
  0xa44bc637ee00d639U, 0x11120af8c7150eU, 0xf44530bb54d55adaU, 0x21e50c000ee000U,
  0x5fbeceee2811fa13U, 0x114bd4003834000bU, 0x51d300015a541013U, 0x12c700cf3f46fa30U,
  0x304b2006fbd8c70bU, 0x12110bffbb545fU, 0xfc0f00f7110ae4c6U, 0xc3000d45460d0d00U,
  0xc00fe4e0059cb37U, 0x6136000051deca0bU, 0xe452dbf0f0e1151U, 0x10fcce0037d6fc30U,
  0xff4434cbc4323b47U, 0x21111ddf600104fU, 0x11dd00503b41faU, 0xc20f65100f2b00U,
  0xe2cc358001000efU, 0xe767d8ce0bd3f407U, 0x474b253b5845415dU, 0x11d1d8003f00ffffU,
  0xda4c00c400a2d1e1U, 0xf212112927c6e75cU, 0x43d00058ffe6fbU, 0xfafdc4e20a640000U,
  0x900240f280f0011U, 0x670e3bfa32fcfec7U, 0x681f00fe54d85b0fU, 0x5455fcfe0f00cefdU,
  0xbc2dfc2bffcdfc34U, 0xf8341104c1fd47eaU, 0x4cf200e028e7d0U, 0x94bd070d44ddcbc2U,
  0x3a3ef663f9e5ad13U, 0x145d9ebe0aa73bc9U, 0xdcad0bb134c1413U, 0x1007c29113d429f1U,
  0xfc03f625b0f9fb3dU, 0xfe053a06c52e1400U, 0x2dc6f91c13d82fdcU, 0x99cd01e10db6b6c6U,
  0xcbeee5b10fcc10U, 0x153793ab0af7d9d1U, 0x260200ff32050912U, 0x6a4a31bb35d0f9f7U,
  0xf44f9a069c42ab4cU, 0xfcfefefd9ce134U, 0xb33a29be0a27cd02U, 0x1ef900450b009c00U,
  0xc3f3c331b7baf534U, 0x4c428fe0afd3ad5U, 0x28b1c3f7ff010032U, 0x12032db83400fafcU,
  0xfad3c60528dbfcdfU, 0xd238c604f4fbbb36U, 0xcafefdcd01cb0026U, 0xfffbdd454400dbc8U,
  0xadfb01fd2d26fdU, 0xd800fc440d224b08U, 0xd30023d901cdffU, 0x4732f8d1b100d5fcU,
  0xd8fed604fcfccfcbU, 0xc900c5d2fd4028c8U, 0x3500c639260abd28U, 0xfcfb31ff06000700U,
  0xd8fc3d00dac9c4ccU, 0xd733fc54c4250aU, 0xff27bafffffd01ffU, 0x200a1bcfd00ff28U,
  0xc320fc4336f5f7d9U, 0xb50000dbfa2cff09U, 0xfe022afdcf073bf8U, 0xfa1f422add100cd5U,
  0xefbd0c6b631fbfeU, 0xffb1f9f703c41de1U, 0xc01c130fe0800ffU, 0xffcdf8d4b2fcf3U,
  0xd032bb2bb4f1cb04U, 0xaa5c720730b7c410U, 0xfe0bf1fc00080f03U, 0xf1f33303ce100700U,
  0xcc3f332cc08f543U, 0x205f1f002c6c16eU, 0xfffcd0111575505U, 0xd7b3f3e325aacfU,
  0xfd03900bf2b9bc03U, 0x37114e933f44e61U, 0xf867b7f945071030U, 0x25b00cdeb954cf00U,
  0x43ee9cd9a374ee13U, 0x5d10f1b832ac030cU, 0x510300045f0f1012U, 0x280300fb11dc2401U,
  0x9c34f408ad00c7d2U, 0x6166c8fed55945U, 0xf40ecff2650a0e00U, 0x557025a0e0d00U,
  0x36fcf36bbb51c510U, 0x1210c6befb0025e4U, 0xd060031105d7f47U, 0x3423b006657fe00U,
  0xfd38ffe1cd29020bU, 0x28100d2cbfff3d5aU, 0xfc0e3bc2105a5f40U, 0xd147ef0a660b22U,
  0xe31013ac363005aU, 0xf522ad80b3f005fU, 0x4dfd00ff0ed70e0fU, 0xeffd500634cfd39U,
  0xfff6000632fff70eU, 0x22100e07f9253a5dU, 0xc003e110940c9U, 0x410c3d0f4fd842U,
  0xe5d2265b0049005aU, 0x5e0cbeca0b00f80cU, 0xf3c0001100e0d0dU, 0xf1dc4386b00bf00U,
  0x55003342f7f409U, 0xf3100f0cc8370c40U, 0x11f7000efe33fbU, 0xc6bb114d4a110200U,
  0x56000038d4114071U, 0xd44fefa0d27fe01U, 0x67fec5dc11100e0dU, 0x6a2fa8fe0e43c7c0U,
  0x33cfffff0ba5aU, 0xf8501003f94d10e7U, 0xd433efd80e2b1327U, 0xf1f0040d0d0200c5U,
  0xcad9f20ff411f75dU, 0xf1094bc62f100fdU, 0x5dfa00f945be3c4aU, 0x5006ad8c110028caU,
  0x212bf2bacafcfc0aU, 0xff630cc5c1f453ffU, 0xfd03d1c8e1000406U, 0xd1bd360c0efefc00U,
  0xdacea711f168935aU, 0x107af2f80cb24001U, 0x26fe00b208c90811U, 0x5e0640f40c62fcb8U,
  0xf303bffff0fdad61U, 0x31fe29c5fdaa58feU, 0xb5fffec25bfc2e02U, 0xfdc4265a57fefd00U,
  0xc5f4f368d5ffae33U, 0x5dffb2d20930d958U, 0xfe0032fdcdffca7bU, 0x6a05fbfbcdcf01fdU,
  0xf93bf82eb61f2935U, 0x36d0fefdd1fb35feU, 0xf7fdc5f6249b23ceU, 0xfdbcfc080cbcfd00U,
  0xfffabafefcb8fcc5U, 0xfdfcfcfe37d72f07U, 0xff70bdfdc1d9cd00U, 0xe30333d2fe0028c3U,
  0x128d961c9fcfd32U, 0x21fe5dcabd2efefdU, 0xfeab24c6ff06ff35U, 0xc3fc2b4b33000d26U,
  0x6fcfd2321fe00feU, 0xfebcfcd003fefc7aU, 0xcc020000feffb8ffU, 0xfdfdabfbfecd2f2eU,
  0x39fbfd3e20b6f3faU, 0xf1c600d8fabdd44aU, 0x2901b2d826084fb0U, 0xccf434b1d50de22eU,
  0xecfcd22ffcdc2843U, 0xfed8fad232f6cc47U, 0xd2223cc3c2501c7U, 0xff02f1af4f00fcb8U,
  0x4f005a0b3f5905feU, 0x2cc1d01e37fbbcaU, 0x6000006bc40bfe23U, 0x30526fbb7030239U,
  0x407b10f40bfae9d2U, 0xf9fa04b533c500c1U, 0x34dc772da36cda2U, 0x41320003b3004c3fU,
  0x4c0051053d000227U, 0xcfc5ffdce1ffaf04U, 0x3931bd37bd09ff00U, 0x2104c1fb020042U,
  0x42d505bb00ff00a3U, 0xcec4d830b9c1d8c9U, 0x436c611232938feU, 0xb3d4272c37000443U,
  0x3c7340800bcd02dU, 0xe0fe3743102dffb7U, 0xd3fe00c8fcd6be62U, 0x29310102000500U,
  0x43d73f0042c100c2U, 0x3ad842333d00522dU, 0x254000cdfffed9dcU, 0xfd0f2cd1fec145c3U,
  0x1d400b4cd0a0b06U, 0x14be20041000cbc9U, 0xfbeabbfdbfc60eU, 0xb11fa0544d0352cU,
  0x20d040ff40b13e2aU, 0x21fefe4b075b0d01U, 0xcc334c06fbb5faceU, 0xd20d3cb800440fU,
  0xbfcc3bd92f166605U, 0x10b0cdfc0e0bfef4U, 0xaeee02f9009fe2U, 0x194ff72b34fbbf00U,
  0x34c819d011f314f3U, 0xcaf63d17cd5be0feU, 0xac0300289d1ec7cbU, 0xc7365817f3ace016U,
  0x3c0e38ff0f123d54U, 0x42fbabd45114a22eU, 0x6fa130ff300f90eU, 0xed16c5350339ff00U,
  0x4e19f1f018f818b1U, 0xb3ae171145133fccU, 0xffb400cdf8fe2cbcU, 0x33453c16f7000f38U,
  0x3a0cf1f9603557d1U, 0xd00d301515af8d8U, 0x172f0e15acc2d70eU, 0xec3a002702262348U,
  0x21144cda13d713afU, 0xf9d95246e10f3dfeU, 0x3d2458000001fcU, 0x3f3e1211ff001212U,
  0x550d36c113340f33U, 0x34c7bb221445ff00U, 0x4c00e011c824000eU, 0x625d00b3fb25fd00U,
  0x2f65120010db3800U, 0xd9430eb2530ffeU, 0x4a00e3d4003a00U, 0xd34b641100000d39U,
  0xee41008ee550df9U, 0x10cac3f90b380000U, 0x103c110f2e05003bU, 0x114801d5b4fdf800U,
  0xf3101033123f4800U, 0xbe004d12b062743dU, 0x31380006424b0033U, 0x40e11447003f1012U,
  0x11e23d0945155634U, 0x13cdce02464927ffU, 0xffb1311d9d6d746U, 0x3670fcd4ffabd700U,
  0x1d11514155001200U, 0x2500115900540807U, 0xf442000dfdf93700U, 0x29084d5230c51260U,
  0x4d01460910f14200U, 0x67f701fe0c3d00bfU, 0xecb51711fecac0b4U, 0x7915fa0036bf5b00U,
  0x4f41130149b813b0U, 0xf9fd161827583e07U, 0xcc100031fa45d400U, 0xfebfdf162a003716U,
  0x10001508f2030cbbU, 0x29121280c14fe00U, 0x5cb2fd11c03bbf00U, 0x6814d52a2c30042eU,
  0x6017ae65a9f0f3U, 0xa8a915e200510005U, 0x10fc00df5fff7f5U, 0xbd00bc54f6cd0e00U,
  0x712d5b0816000026U, 0x32fc36040d15f530U, 0x3d010016a90700ccU, 0x1bbc9c5d50300d3U,
  0x31013f635b909c6U, 0xf7fb0700c0012a06U, 0x30c394ffc02fe94U, 0xe331d3cbfb000700U,
  0x51004103340001c1U, 0x2901de0c01f902U, 0xda02002dac093600U, 0xff4128fe2c02d5U,
  0xd900fcfeccc000c3U, 0xfffe003cfc002adaU, 0x40b274f013f00c6U, 0xf90200003600fe00U,
  0xbe4effbe00fe0605U, 0x7c40005cd2eff2fU, 0x20100c3fdbf0fU, 0xbc03274e02ffb500U,
  0x2c26b8ff47bec72dU, 0xd101003fda000cfaU, 0xff36000afc312c01U, 0xc612c900ff002900U,
  0x10d01ff00504008U, 0x18cbb5fe0bd60099U, 0xcdf963dbfe03fa47U, 0x3a15f52f3eb700d5U,
  0x1b4100bd4fb2ddcfU, 0xbaba021407cf11b6U, 0xf42ad835caf9fcfeU, 0x10e6232ad2710daU,
  0xd3e604dc01491007U, 0x38cf183e0852fcd1U, 0xd1c21806fe009330U, 0x715b2402d81d3000U,
  0x612f914bb17f2U, 0xc9f54065291456ffU, 0xb93a0001f1f7f2c7U, 0xfe3b5a1ad000527eU,
  0xcd0beb0012ec6507U, 0xf22cb3a0f0fccc4U, 0x7f8ea5e2000c20bU, 0x1214000234cf2800U,
  0xfa185f9316f618f5U, 0x9723146dd5110bb8U, 0xdb334d3efafcfac2U, 0x2b095460f3006649U,
  0x520eefd1405211b9U, 0x1025ff4c67139a00U, 0x4c411116c8dbc84bU, 0x6d3c00fddd004400U,
  0x12eafd11ff63fcU, 0xd93fde52094e0cfdU, 0x544e4400003afbU, 0xf83a11dc3c000e10U,
  0x1141363112594102U, 0xf2f2c03455d4900U, 0x65393313414ecb0fU, 0x4410009ede00d600U,
  0x211120040dc6800U, 0x2f00520fbc100eccU, 0x12f3ac0d100ccU, 0xcb0b5c112c003a0fU,
  0xfd0edcb144664d4U, 0xefbe004a0fe5b200U, 0x5500113400c44010U, 0xe0122f009ffaf838U,
  0xc5eaeacf422c4d00U, 0xda110fa2104daeU, 0xca38000eff0000c8U, 0xfe0d624f002e5b11U,
  0xf4de5cf4215e92bU, 0x16ced1fe10492e1aU, 0xecfe130f01c2fc36U, 0xe843c50031f44131U,
  0xcd1110c510360ffeU, 0xff121400154703U, 0xace3003cfd3bffffU, 0xcf023c15d4c51016U,
  0x6d9b70000000U, 0xa082a6c64c5600U, 0xa900008ca5006bU, 0x49c75b00983c00U,
  0xc59500000058a2U, 0x8c0000c1615c0062U, 0xbe00b8a6a800U, 0x8d0000adb7490059U,
  0xa59bb2ab004400baU, 0xb9U, 0x484a00c390003f00U, 0x57c2000000000091U,
  0x4a004c0040c600U, 0xc1000000000000U, 0x5b924d0000004c3fU, 0x9a00aa00914b0000U,
  0x81b60000b79700U, 0xae9b59000055U, 0x6d00c34000003cbbU, 0x4c00000000006a00U,
  0xbd70000064005660U, 0x5500535158b600U, 0x3c530000ad9900U, 0xabb900005fU,
  0x70bf008557a75b3aU, 0xb26159c400000000U, 0x624100c500c100U, 0xab004e000000U,
  0x6fbf000000006862U, 0x599100a1006b00bcU, 0xc28a00b100946200U, 0x0U,
  0xc0006f0000U, 0xbe0000000051006aU, 0x915700ab4d3ca4U, 0xc700654500bf4900U,
  0xa70000a765003b00U, 0xad5aa8404300a2U, 0x4751000051bbU, 0x565e00c400000054U,
  0x440076b1450000bfU, 0xc500aa8e00ad00U, 0x3f00bd00a3bf0044U, 0x9f0000U,
  0xa90000005b0043U, 0x42576e00c758009fU, 0x960056a69d00b595U, 0x8d0000U,
  0xc3004667008c8cU, 0x8d0000a8b900c200U, 0x52c5c4aca200U, 0xa300ae000063b1U,
  0xc35e00c000000000U, 0x6b94875a00003eU, 0x469a8c0000007000U, 0x60470000aaU,
  0x8f59004db800534cU, 0x645a0052008900U, 0x504fa00000af00U, 0xb4b7b50064c30000U,
  0x4f009a6600000000U, 0x3965000000000000U, 0xb0669f0056000000U, 0x8a000051acb200U,
  0x6a9a00bd005700U, 0x606000a000490000U, 0x95be0096U, 0x8f0000c44fc500U,
  0x84b500434800U, 0xa10000b33f3a50bcU, 0x6b005fbaa1004000U, 0x903eU,
  0x556f4500000097b8U, 0x8c69a100925bU, 0x4200U, 0x3f9d9c9558ad0065U,
  0x4f9400620000U, 0x64b4b3003c000091U, 0x99984100004b9d00U, 0x8e00000000450000U,
  0xaa9abe52725271U, 0xad009b00000000U, 0x690000b700009944U, 0xb6870000004d00U,
  0x4455008c00000000U, 0x726e00000000U, 0x9584b39b535a8800U, 0xb68f00009e5c6700U,
  0x48000045a3786300U, 0x54005a00003f4900U, 0x605d00c3004d0000U, 0x64006700000000U,
  0xa0009a009f9f4500U, 0x72004f000000U, 0xc44f00c0U, 0x664600b4aeU,
  0x47b34d000000U, 0xb2b3b0449e63b3U, 0x7800bf0000U, 0xada6b196003c0000U,
  0x9a0000000000U, 0x5e0000c6000000U, 0x496600b3000000U, 0x4f5500000000U,
  0x4e59009f00b30000U, 0xb800000000b38800U, 0xc258444900c0U, 0x91000065U,
  0x543a00634c6500U, 0x9d9b00000000b500U, 0xb80000009a9bU, 0xa2ba3cb85d4540U,
  0xa70000003c00489bU, 0xbf4257b4578600U, 0xb100954200009c66U, 0x9c98a70000000097U,
  0xb2000000525e00U, 0x3cc29f00U, 0x90aa000099a400U, 0x510067a884b1a9U,
  0x6f004e5bb55a4f00U, 0x9e00005300baU, 0x87ab008f000000U, 0x6100ae88abaf00aeU,
  0x47588f6500U, 0x8db5005900005400U, 0x41003e00000000U, 0x605000a7000000baU,
  0x668b0000a8000000U, 0x545657c000009090U, 0x5b9a4a000000U, 0x5b4700609eb80000U,
  0xa300c04f960000c0U, 0x4a00a00000a70000U, 0xa95a00008abb00c5U, 0x889a00bf00bf0067U,
  0x4852000000000000U, 0xa78c00a100b20000U, 0xbd004458bbc60000U, 0x62000000U,
  0xae00U, 0xc400000000b1U, 0x550082550000U, 0x3f0000bd00bfU,
  0x3f73b9008e0096U, 0x4300be4600U, 0x9e6c4c00a2b90000U, 0x4e9c0091ae00b100U,
  0x4400006191000000U, 0xc200c20000a300U, 0x545a00550000a7b3U, 0x9f53b20065008885U,
  0xadb8004d00008700U, 0x703c00a2b74400U, 0xb4004caebe00c48eU, 0x6e00009100b2U,
  0x3a0000baU, 0x558f00c35b97U, 0x426b0000U, 0xa0ad995c000000U,
  0x93009c005e3c5f00U, 0x913b903d4facU, 0x4100bec3003d008eU, 0x90a442U,
  0xb39852b058U, 0x950000b40000008bU, 0x4264008d0000U, 0x3e000000008600U,
  0xbd00003c004e00b5U, 0xa1006500000000U, 0xb700b839000077U, 0xb7005f006e000000U,
  0x8a000000b158b3beU, 0x47005f000000a88fU, 0xc300005a890000U, 0xb2008d3b9400U,
  0x50a1000000624100U, 0x4ebfad0000bd0045U, 0xaf3e00009ab50097U, 0x5f4e39a2539e7043U,
  0x8600600070000000U, 0x4c500000ab3c0097U, 0x4b5c000000U, 0xac00666b9590ab00U,
  0xae4f004500b363c1U, 0xbda44f6000915700U, 0x9a973e9200005a00U, 0x6e004d0000910040U,
  0x96c3583a00a6005fU, 0x945e000000bea700U, 0x4095ac00aa8600U, 0xb69d000084004cU,
  0xc600005d9b99U, 0xb7000000c5008ba4U, 0xb1400000a53ac43fU, 0xa200a4b800a850U,
  0x6100004c56005400U, 0x589f005dbc5b0000U, 0x84bb5ea484000000U, 0x4d003e00beU,
  0x4dc2c4a59a004b00U, 0x8f00604a00a40000U, 0x4f628f000084008bU, 0xa06dbb003b005d3aU,
  0x8f00000000580092U, 0x90c400610000U, 0x9c3a000000ba0046U, 0xae97005bc00000U,
  0x9a00c2c4500000U, 0xc000000000be66U, 0x6e004e3c00009900U, 0x4500005f00004b00U,
  0xb39600947741U, 0x749d599a0086U, 0xa0588c9339bea35eU, 0xbf5c0000c540U,
  0xbd410000b1000097U, 0x55009d0064b000c2U, 0xb84d009300004200U, 0x585b5cb4399800b9U,
  0x5b3c93009e7600U, 0xa9000000590000c0U, 0x4300007000ab0000U, 0xbe0000004db7U,
  0xa7ad000000a083U, 0xa4b651008400bd91U, 0x4a00000082005e00U, 0xb9000000ab660000U,
  0xc5a6ad000039U, 0x994d5c000000c6afU, 0x52000055003a9200U, 0x9bbb0000000000a5U,
  0xafb100b00000a800U, 0x4948U, 0xac0000475e99U, 0xb7910000a6570097U,
  0xbf00af00b5a84baaU, 0xbf0099004f000000U, 0x7039850099b2a600U, 0x99008ca600000000U,
  0x8d005aab00005f91U, 0xb6000092000000b9U, 0x480000bf0000c600U, 0x840000ba86678f48U,
  0xb2006694006360U, 0x43c50000004fa255U, 0x62b855c200000060U, 0xb962004b9d008e00U,
  0x6b8ab100009b00U, 0x570000005000U, 0xc4003f00a600004eU, 0x4300860039850000U,
  0x5a53bab688000000U, 0xb7bb9d00a35f7100U, 0x9b00c1610000U, 0xb500934c90c6U,
  0x530000b0000000U, 0xac9c565aU, 0x8a434ba000U, 0x620000b1ba49U,
  0xa30000aa009c00U, 0xa9bfbd00b93a009eU, 0x4588000000009abdU, 0x9e00be00959fU,
  0x4cU, 0x4600005a56004e93U, 0x463f000000009900U, 0x41c2af00579a63U,
  0xac5100c7b100005dU, 0x9400009e3c93008eU, 0x51514f0000000000U, 0x646d00c14899ab3fU,
  0xa98dae0000005387U, 0x44af3cbcc0U, 0xa10000c36155U, 0x5d00b565b3b9009cU,
  0xa500003900U, 0x53b30099004000U, 0xc75c57b08e004cU, 0x503e000000008547U,
  0x5ba70095a600ae00U, 0x5cb00092000000U, 0x6c4e0000000000b2U, 0x710000475f003a50U,
  0xae5b000000003eU, 0x544b005400000000U, 0x4c000000c60000U, 0x5c479e5d000055b3U,
  0xa00000004300a4U, 0x5e0000b8005eU, 0xb79a00b2000041U, 0xaf00003c00b50000U,
  0x9700b60000a100U, 0x3e0000a9009a95U, 0x393d0000U, 0x5f400000509e00U,
  0x6a99920000393d42U, 0xc69300009d000060U, 0xa56ca343a40056U, 0x9c000056949149U,
  0x9c000000954c4800U, 0xa63a0000005a5300U, 0x9a000000U, 0x694bab0000U,
  0x40008859a15900U, 0xc7005a58005300c0U, 0x5400b4810000U, 0x3e00aa5a50004aU,
  0x5e00630090004800U, 0xa8ac0000009800U, 0x5c478800456e0000U, 0xc7a1bd00bc460000U,
  0x99ad88b300b800U, 0xc000513ca1000000U, 0xa446ac9b0000baU, 0xa40066000000a400U,
  0x3900aa8492c094U, 0x758c00000000U, 0x5e003a5100a900U, 0xc400bd4e4c0000U,
  0x77009500c0a40000U, 0x56003ba8acb046c7U, 0x9700835b6f5300U, 0xa59c4548adc30000U,
  0x520000475cU, 0x609a9e0000bc8bU, 0xc1000000ad980063U, 0xaac600980000U,
  0x64009500ab00b2U, 0x40006da85787ba00U, 0x394a560000U, 0x8e000000U,
  0x8500000000008a00U, 0x0U, 0x8a00508a0000U, 0x8e00c3006c9100bdU,
  0x62b8U, 0x5a0053c07000U, 0x994849bf0000U, 0x5a003bU,
  0x9b00c1000000b8U, 0x99006300440099U, 0xb500580000000040U, 0x968e0051a400U,
  0x874e3eb800855100U, 0x8450a74f009b0059U, 0x87950048c1a240b5U, 0x95a60041005100U,
  0x8b469200009790U, 0x920000a400004493U, 0x5400470060920000U, 0x4abc00003e660000U,
  0xd400cf39a23400f9U, 0x3300cc004001U, 0x3540009f7fff0200U, 0x4bc3c0635901b200U,
  0x12d2e02c3000002U, 0x10000f900c43cU, 0x202929738020245U, 0xcd0000d25abefa50U,
  0x254b4fc0000bc02U, 0x53ccad5544000139U, 0xbf0258004337c242U, 0xff035a012d00U,
  0xb13a00010001U, 0x101bdc404b000ffU, 0xd30163bdc53a0159U, 0x3b41000054cc0000U,
  0xfc00f90000fbb7U, 0x1c102ff500001feU, 0x3702c238d1bab73aU, 0x3d0040bebf380100U,
  0x1000000c901cbb2U, 0x2b900bdff003d38U, 0x1c400015ad4ff01U, 0xbf734700b8d2014bU,
  0x3842599b00ce4d00U, 0x2755bb51fb004201U, 0xafa73600b05ffcU, 0xce000160d2ff3b00U,
  0xc70000410056c3c1U, 0xb40000004bfffff8U, 0xbdfe0052004cbabcU, 0x1ff003fc8b0ce00U,
  0xa9003400fe2ec9U, 0xfc0045369f49bf02U, 0xaa01c5cb023f44feU, 0xfea60200cebd32a7U,
  0x57005a030002b401U, 0x3c146fd59fcbd04U, 0x44b334fb00cc03bbU, 0x1b3fcfe0200cffeU,
  0xa0fefd4800fe0049U, 0xc15eacc802005100U, 0x3cc735c1b4ac02b4U, 0x46fa0200b200fe00U,
  0xad01ad01babffc3aU, 0x204a9fd49fc37c1U, 0x2fc000102045b01U, 0x3ffefab9050000fbU,
  0x4bffbe65004afd4cU, 0xa5febebffe02453aU, 0xff44fc33cd57323cU, 0xfefd3c025000d5a4U,
