/**
  ******************************************************************************
  * @file    soh_model_data_params.c
  * @author  AST Embedded Analytics Research Platform
  * @date    2025-12-04T13:34:51-0600
  * @brief   AI Tool Automatic Code Generator for Embedded NN computing
  ******************************************************************************
  * Copyright (c) 2025 STMicroelectronics.
  * All rights reserved.
  *
  * This software is licensed under terms that can be found in the LICENSE file
  * in the root directory of this software component.
  * If no LICENSE file comes with this software, it is provided AS-IS.
  ******************************************************************************
  */

#include "soh_model_data_params.h"


/**  Activations Section  ****************************************************/
ai_handle g_soh_model_activations_table[1 + 2] = {
  AI_HANDLE_PTR(AI_MAGIC_MARKER),
  AI_HANDLE_PTR(NULL),
  AI_HANDLE_PTR(AI_MAGIC_MARKER),
};




/**  Weights Section  ********************************************************/
AI_ALIGNED(32)
const ai_u64 s_soh_model_weights_array_u64[2253] = {
  0x89b07f498147c81cU, 0x932f24831a7f97d7U, 0x74e52e3a1e816f74U, 0xb006810e941ddf81U,
  0x5a03c381882f813bU, 0xa4756538117ffa91U, 0xc90281799ec3ef7fU, 0x2ba8628125baab7fU,
  0xc07fde2ec38154a0U, 0x7f4e927e1b687353U, 0x59f27f146c81a233U, 0xf8c67a81a499973dU,
  0x8134e6175c810b28U, 0x8636e27ff458683aU, 0x628336517f815157U, 0xa5867f7f93ad59b7U,
  0x6e9a7fd921323d45U, 0x4f8176bf4c50819cU, 0x9e15ffd8ce7f82c7U, 0x517fbf88a9b87fe0U,
  0xfffffd25fffffaeeU, 0xffffff6cfffffa5eU, 0xfffffa3efffff578U, 0xfffffb36ffffff80U,
  0xfffffbf2fffff986U, 0xfffffb35fffffd02U, 0xfffffbd7fffffd2dU, 0xfffff810fffff7bcU,
  0xfffffaa4fffff822U, 0xfffffe99fffffd6aU, 0xfffff96dfffff755U, 0xfffff88cfffffc1dU,
  0xfffffaa8fffff8e2U, 0xfffffbc1fffffad3U, 0xfffffe30ffffffc2U, 0xfffff7a20000000eU,
  0xb80dd8ef2b4bf80dU, 0x1555f72dcac865eaU, 0xd3280e0b2ce2e829U, 0x1430ef49f80e46ebU,
  0x73143d7d0fb21dbU, 0x2afecb0be3fdea2cU, 0x2f24d9dafe0c181fU, 0xdc9f00143831e8e7U,
  0xd7d2390fd91507ebU, 0x1d40fb353323fd04U, 0x20eedd6f6e945b8U, 0x17bff2bd0722eddcU,
  0x1927bb299be022dbU, 0x615e3c42bfcdd08U, 0xfae02b04d8f51be6U, 0x2beb2ce32716e80fU,
  0xfcdf2b2622ea0c11U, 0x3d1c0706a43325caU, 0x363ce3f906c00bdbU, 0x3cffa1a1e54a30fdU,
  0xace054e6c46ddbcU, 0x1f208eb212b10deU, 0xe3e4ed3bf6bb14d4U, 0xd9f9c9d2aa0e9f36U,
  0xc92c1a21d63f1d5aU, 0xe025b3edcab70affU, 0x2dbb6c25201800e5U, 0xff00d7aeff07f9efU,
  0xf803323057f72f15U, 0xeec5ed24ade3cfU, 0xda193620cce615dfU, 0x1fb33e3f5730fff6U,
  0xe3f4e5322cd2fbe0U, 0x130fc5e1fbda1bcaU, 0x2c30e20649e0153dU, 0xcde8e9ff56ed3afaU,
  0xc3d3f3301c17cd38U, 0x13f8c2cd011d2247U, 0xb324f8314bf51509U, 0xedfdc2cf50b8e5d8U,
  0xe793c0474fd1e614U, 0x40d5fadbe4c3e235U, 0x2ee5de14e1b4451bU, 0x16e2ccf351340326U,
  0xb3c5f0d8a9d92a1eU, 0x244426e2d8f36417U, 0x48bd39f61ef0fbfbU, 0x25b3371bda1ae1e7U,
  0x3122ebcf76432709U, 0x520fbcedd609e04aU, 0xecdadc34dddc0e3eU, 0x1dbffff138b4e1feU,
  0x37f4e1066c35c61bU, 0x6ffef39d30219d4U, 0x18e44727feffebc8U, 0x1ebf16ebf800f9d0U,
  0xe8abeb330c11331bU, 0xea29f940342a4fe0U, 0x32b91dc0f8103808U, 0xc4422a813929d15aU,
  0x17c2f3171c07f2ceU, 0x120a6bfee240a04U, 0xfd0a3f1a08d13146U, 0xbdcdd31bf3241a25U,
  0x45c4e10b55dbda27U, 0x61db7e4d53340f2U, 0x1ff2dde324dc505aU, 0xfef1ca94aefbd91dU,
  0xbfe3bb24e61cb32cU, 0xf9f7f806d3af5429U, 0xf4c1eae6ee1a4bd7U, 0x1e11c8b01935c6edU,
  0x16b02fdb502d1d16U, 0x11cf0e01f208e8b2U, 0x22e1c83b0cf30ed8U, 0x9e9d1cbde071fbeU,
  0xdfc8b4fae6c7f39dU, 0xad131bf51cd8289aU, 0xe8c5af312e1e04f3U, 0xc018eeb731430207U,
  0x1205a8c1ecee2b3aU, 0xb9db01c80cbca713U, 0xc9f513c30fbeb6dcU, 0x1a160cb419d2ff0cU,
  0x1721f19fe6ede1c9U, 0x293e13d822e4d10cU, 0xf303ade330171bd2U, 0x280808b9f0f71a0bU,
  0x111feae140ddef22U, 0xde01fcfa1d4aff24U, 0xe131c2fc342203e7U, 0x2e32167aba26164dU,
  0x67e9d4e3e2f1121aU, 0xf1ecfdf919e1df01U, 0xe224d318c535f1dcU, 0x43371349eee6f4f7U,
  0x2c41eaf23ed0cbefU, 0x231508e922dfef18U, 0xd1341ce21fd714eeU, 0xf41c39ef1d273efeU,
  0xe2f117f513c914ccU, 0xea08daf412e0c50bU, 0xd74bd2e21025e80dU, 0xee30fdd8b3f2e8ecU,
  0xe0b2617ddea3714U, 0xebcbeb00fcdbe40bU, 0xe2f6eae9c433dadcU, 0xfd0f46da40d3f033U,
  0xee1d421b270c0113U, 0xf70747161a0cd103U, 0xd22b1605d141f31fU, 0x281c22fdd4fce1efU,
  0x26f220e3facdf509U, 0xd9da24f411200d1cU, 0x15d3e9d3b429e223U, 0xe5ea1934ccc631d0U,
  0x1b23ff10f32ce6cdU, 0x3d2f40d320af9edU, 0x21d7211f2d10f511U, 0xe2f73de1a009fad4U,
  0xeef62ce710de33edU, 0x1e2ce9e30e2b23ecU, 0xe0116d7f9041044U, 0xf5fdf52e0fe6fbf4U,
  0xf3280129f32f2f2bU, 0x11f5230ff334f308U, 0xf0dcec2314fce207U, 0xe02118e0cd26e40aU,
  0x2df5ffd736cf36fcU, 0xcdf224e61a19180aU, 0x192ddae202f0e309U, 0xf612fccf1c25031bU,
  0x303af8f5dff40102U, 0x1a51012e041fbf0U, 0x120011f635ea17edU, 0x7fb41f8d4f3f102U,
  0xb7f062410e5f8dfU, 0xcc05221f2b2aa2e1U, 0xc89efb022c26e1e6U, 0xe22d1cf327cffa13U,
  0xcfa2bd03324e0c1U, 0xf30d060e1acc02f3U, 0xd019d224063ec90fU, 0x5e4d45f3e4efe8d7U,
  0xe6e1de2105cdf9d0U, 0xe14f234c229eb1dU, 0xd64ced28d52d0f0dU, 0xc805f61b04e2070aU,
  0x2abe33202fde2fdaU, 0xc5c7e017f7e2f0f8U, 0xcd1dffe3f50d0ff9U, 0x2423fc0e0e261cf3U,
  0xe256190ff11b0df5U, 0xe5f10542f239c4d6U, 0x1238f827ebe9d528U, 0x110fd31287053038U,
  0xd4211fe12ed2fd7U, 0xc8f72322ff2104dbU, 0xe02beac2171cee0fU, 0x2801483b2dd21e20U,
  0x30ec09bafae3e6e6U, 0x1cfdda28fc1529f9U, 0x10e4f8e6ee0f95e2U, 0xd5ed241bf7cfe8f4U,
  0x33092ab700ec1fdbU, 0xe0f6182ff11dfe00U, 0x28f50ec7f912d000U, 0xde3abb19cd9ce010U,
  0x2b2503e71e042d25U, 0xe2eeede03c271cfdU, 0xe71fdf1cfc31dd02U, 0x6e9d2e4d021df0bU,
  0x332b1c10132401fdU, 0x406e9e81a1afefbU, 0x2a12d5ffe30a23e3U, 0x2bed2f391910f7f0U,
  0xd0bef0dff80a190aU, 0x2901c6defe2820e8U, 0x10f71624dcd20fc1U, 0xdf22dde616cb2ec8U,
  0xe9ce1c0d43d7f4d9U, 0x26e1eded07dd0927U, 0xf5f4d4e73bf9d01dU, 0x3d7172f3a10facbU,
  0x1411c6150cd135d1U, 0x3a25f8f5d2fd4822U, 0x1be71a060a0fe20eU, 0x18c5d61cb62fcee9U,
  0xc5a82f070006db1bU, 0x50e403ed0fe90533U, 0x1ede3ec4f7222da9U, 0x3718d4bfee0df3e4U,
  0x3be4c8325313b514U, 0x1b04b7ba11d33bbaU, 0x4f04382f001edc99U, 0x2cf0d2f0f40e0b35U,
  0xf4d1d646683f180eU, 0xfdd80cf3cf03fefaU, 0x38f31be7e1bb2942U, 0x11bc14c89f1c17ddU,
  0xc916eded16fede11U, 0xa0060be4c027fbf3U, 0xf201d71f3cc5cdd7U, 0x11d7e5c4d4e4dddcU,
  0xda131f1241e40dd2U, 0xf4d336e6c4cf14c1U, 0xf111a9ad13381124U, 0xfbf02f02f3de1008U,
  0x510ff26edcee146U, 0xebeec224e6f6af05U, 0x9c0cf5246837cb07U, 0x41fce91ae624c8f9U,
  0xfd17e4b347f1ecd9U, 0xa4e634ecb8cbaa53U, 0xa8c9d8c63bf3bf00U, 0x33e0d3da2dc5f4fdU,
  0xf4edfccdc8ecc0e2U, 0xe420302b34efd4ddU, 0xbadaec25effdbb1dU, 0xc6dd30dc3812db04U,
  0xf681d81ccb222eceU, 0x20040ade16c5cacbU, 0x2aac36ddb4e9d8f2U, 0xe41c13a741d8c3fcU,
  0xd4ccd4c531eb0920U, 0x481fd81ddee44d12U, 0xf88b51ffe6ce0cd3U, 0xd4000e30272ff0fdU,
  0x860c412063f15f8U, 0xe81fd9bfe416fe54U, 0x28b2442a0201e72eU, 0xc2b31a2ffa2a0b35U,
  0x33bc08f2e14a2f35U, 0x1a3415c12e4208e3U, 0x2de4413b1fe2401bU, 0x334e36f6e6094109U,
  0xc8eec6ce4ed3c8d6U, 0x1ffa2ad5110f353aU, 0x2e0f00170d24ffdfU, 0x3e13c2aced1547bU,
  0x31119130725fbecU, 0x1f00dfd10a02cdecU, 0xdfd6f326f9d7e9f7U, 0xf810e2eab3d2afedU,
  0xcc060adc1e4b0737U, 0x422ee1f4b7c4f3c4U, 0xe1113d14b808e4f6U, 0xf2ccd5fe2f445611U,
  0xcfcccb1f1830c30aU, 0xafd6d1aed9c0f5bfU, 0xef18ebd409aa0419U, 0xd1ed16a1141fe11dU,
  0xfd21c037ea01dd16U, 0xb3eef123b22019b5U, 0xf530be012418feeaU, 0xe2c0f02909d80d1cU,
  0xde31e31ef924bbbaU, 0xf8da1d2f0be2c0ccU, 0xc8cec8e34a1af208U, 0x2b02d001fb1ce2f8U,
  0xd3d3be025f04bd47U, 0xb3fe2ca91205203dU, 0xd3a0ca2d0219b056U, 0xeedc2bdc1fc92de7U,
  0x40d28fa1ef8e9efU, 0xf3e307f52f33e521U, 0x21ef02fc25060de1U, 0xebe1fe05cee3f6feU,
  0x23dd25e6edfae222U, 0x10ecf80034e8fedfU, 0xca39f418daf4e500U, 0xa51242af7002bedU,
  0xda0223f103fc10f7U, 0xe10ef01e15ed160cU, 0x20200c0c14251fe0U, 0x29032db3f31220f1U,
  0xe7242bf9f5081a21U, 0xe108d3ebf5ed0406U, 0xfef806f9d62409f5U, 0xf416151afb1bf319U,
  0x1f0c0f15e0f011f8U, 0xd8e3010c0ad2f1feU, 0xe3f7edebe4ec261bU, 0xde1118f60cfdfbf4U,
  0xe2fe1917f0ef21e3U, 0xfe2edeaf4e0fb02U, 0xfe18d8ef18290aeaU, 0x2f01031397f01811U,
  0xf18f11ae4101fdfU, 0x11e0b180503dfdcU, 0x3f81ef1cd200c16U, 0x270824e608e8ee1bU,
  0xe4de1af82e230df8U, 0xd9210cf1f825041dU, 0xf91213052ff1160eU, 0x13eb15fbb229d91eU,
  0x29f6fb01e227fdedU, 0xadbeb11ea0cda29U, 0xfd00f6ddf5140011U, 0x2b230b19190916f3U,
  0x202a2201f8de0b2cU, 0xe807120628e4e919U, 0xfd020e2ef7141d0aU, 0x3eaf1f519eafefdU,
  0x200a0cf5f9e22bf1U, 0x162105eddeef22f9U, 0xd5081612e70ceff3U, 0xeaf607e730dd2cfaU,
  0x2a0fdc15df0fe00bU, 0x21db0913f6f61e02U, 0xfb1d0ffc20151e16U, 0x170309071cf61132U,
  0x11551ce50dfc2121U, 0xdeeed6fa073ccdfdU, 0xf9efcfdb17fdec00U, 0x7d915effd091bf7U,
  0x322f70f12dd040bU, 0x16ec1ccf0118fdf1U, 0xe00bf5f71f24e521U, 0x171824040c09f7e6U,
  0x17041723e6e7ece2U, 0xf3e0c20f1ffc00efU, 0xb082a15f7e21edeU, 0xdc10d201171af0d7U,
  0xf0bb2ee4010915e3U, 0xf11e13eb09fffffaU, 0x1714f1160318e0fbU, 0x1cf417212b230822U,
  0xf3110028ede62120U, 0xf109effa1417fc20U, 0x61ffc0018220922U, 0x22ed0cfcf5ebdd16U,
  0xee23effe240ce3deU, 0x9f627f326e8fdf4U, 0xf9eafbe1ddf0e506U, 0x13e5feeb0b0cf6f7U,
  0x1b10e0f517de15deU, 0xe4ee1e181219f523U, 0xe14f6eb04e6dff4U, 0xf2f4f20bf7fceafcU,
  0x17d8e5edd5160b81U, 0x11f0beb0e0ae322U, 0xe81df9d1fc16ebdcU, 0xec19df0ecdf1ed01U,
  0xebfd02150118e235U, 0x25ef142be80de0caU, 0xff80809fee8f40bU, 0xd912ebe508dff4e4U,
  0xeede1c2409fb21ffU, 0xd8dbdffafb15eee1U, 0x250ffd33050502fdU, 0xfec27010c040beaU,
  0x2a0739e7dd2121f0U, 0xfe0e10fd07170818U, 0xda091f040c0ff5f5U, 0xe8135127f0fce904U,
  0x30cdf9ede3dbda0cU, 0x16eaf029f8e61030U, 0xc662fbf5e608fdeeU, 0x4a4230f8f422331dU,
  0xd81dddf02cf60716U, 0xef1cdbd44fed1c04U, 0xea0fd1f8240a17feU, 0x34473fd0042a1405U,
  0x1d1f02ee4a08ebf3U, 0xe1d4e9f11224ccf5U, 0xdc30f71c18f113f7U, 0x25ee22e70303e424U,
  0x916082717ff4314U, 0xd4d31123ec09e7e6U, 0xed261fd0b41e221bU, 0x1e141f2410dece9U,
  0xe8041ef318f7e6e4U, 0xe3f937fff23bd8ffU, 0xd50e14ef2916faf5U, 0xef2516e7b6e81200U,
  0x27f524e542e6fe0fU, 0x1ee814060508d5feU, 0xdf011fc0d2ea0100U, 0x1915ff260bddfff0U,
  0xbfc10151d252df3U, 0xf72bf233fc221f18U, 0xf01b1bf3221015e5U, 0x2da1202b32d05d7U,
  0x302d3528e3f429d1U, 0xe9dce7faf32129d3U, 0xdb0de1d8060fe2U, 0xff40bfd1d2133e6U,
  0x1325edfb1320203dU, 0xf5fbe0200bf4e01fU, 0xdf07e45013db07f4U, 0xaee2c0303e1e5e3U,
  0xdcf20c2317e639ebU, 0x1d17022ce318e8e7U, 0x2117d5d7efe9ecf4U, 0x28eefdf835051b09U,
  0x2847e0e20810ece0U, 0xbb802061ee6ecf6U, 0x1205cdef1dfa0c23U, 0x4fbfd3bcf1cef02U,
  0x1e7feb0b25e4f7eaU, 0xfbcc1d1c3538c60eU, 0xc3afc90dd90616eeU, 0x2cfbf7e9f2e0e713U,
  0xecf8ec01f1dded03U, 0xfc0ed3bd0cfe21f6U, 0xd928e7fbc122f201U, 0xd482bfdea052916U,
  0x260b0ff422eb1419U, 0xdb0eb022c622f519U, 0xfcfefe28e72adff6U, 0xd1efb1dac9d5f1ebU,
  0x15e3f8f806e708deU, 0xf8cefbf440c7e5e7U, 0xe0ec0d231f08dadeU, 0xdded1d2b4722e6f2U,
  0xe64046ee26fbec0aU, 0xd9c90a2def4df8ecU, 0xfdecc80a341ef7ecU, 0xd6ffe102c622de1fU,
  0xb021b0b0af0ff1bU, 0xe01bee1e30221b09U, 0xf424efe20421e022U, 0xdcf0361501f6e72fU,
  0x12230ddb04dc1906U, 0x15f5f02c21f5d624U, 0xd9f8f2e70c199acfU, 0xf314e5e0ebcff6e9U,
  0xe1e27f41016febdU, 0xe4d724e1ef17e02bU, 0xdf08dac2de1be30aU, 0xedf202dce6f40b04U,
  0x42527ef10d8ef58U, 0xdcdc1420ecfde9b2U, 0xf7eff6e5212f0f03U, 0x2af4df13e7f41807U,
  0x252121e20929f7dcU, 0xfc071d2a34350cdaU, 0xf051a45092ce8f9U, 0xfa1c0225ecdf172dU,
  0xff16fe17051dd2f2U, 0x4cb15c72028ce02U, 0xf1d5f5d728f4e7eaU, 0x2f0fee2ddb1ecc38U,
  0x48a5cf2e23e1d9f2U, 0x1bf2f22610e2f1e6U, 0xd258d70609eef0e7U, 0x1d462327dc07efdfU,
  0x2e3811db4ae21fd2U, 0xe8d61b123be7f8e8U, 0x1068d02d2ef1141fU, 0x17e42ff9f411311fU,
  0xe3e41e9fef8ff15U, 0x222729f7b302d9e0U, 0xeef4182d2c2c0f24U, 0x27fdee31cce6f903U,
  0x2fdf41dadc271a04U, 0xed02da3bed08cdf0U, 0xc18e013f3f2ed28U, 0x2a0a0d0506273038U,
  0xf4ff331d09dc16ebU, 0x18e63fdb202ae4d5U, 0xdded1918e30aff1dU, 0xdc14c7fda3d9e70dU,
  0x1d0711eff2180e2eU, 0x2ee50c14ee1102e9U, 0x23efdce71b2e283cU, 0x4ee2d271635f4d6U,
  0xdceaeb1e01edf0f3U, 0xd2cd2f3f323312cU, 0xe0250ee2f6dadcf9U, 0xe6f418fee8fe1f18U,
  0xd020203d5ef20c6U, 0xe21c0a2bdd2ed609U, 0xe72021bbd026f21aU, 0xfe1ef3e2f53d2d20U,
  0x1b2ce611e01a252eU, 0xd5e9e6dde33409efU, 0xf7231969f81f1de0U, 0x28191a32ff0b22e3U,
  0xe4043dfc2eeb00feU, 0x13d1e71ae03e16e7U, 0x41010f70d2dea1aU, 0xb0a220ce1fd19d9U,
  0x1e0810f110fcf708U, 0x150d15e71e3ce318U, 0x270a151c01f32ddeU, 0x2bfb0020d5e825f1U,
  0xed7fe8fa1e2c0f22U, 0x171d140720530937U, 0x1fdcf5fed811e61cU, 0x251e0ce404fedd1bU,
  0xf01deedf34121eceU, 0xd5f82ee40a38e0fcU, 0xe23fd29d701310eU, 0xa5ee8e5eb0d19e6U,
  0x12d9ee1be20412ddU, 0x312f739e80eee04U, 0x204408dfef1032e9U, 0xfef5a90122f51addU,
  0x22e7d825f72e21ffU, 0x7f8f1043fe2d607U, 0xd11bead7e7fd10e7U, 0xdee90a3730e32ebfU,
  0x34828d613e6dd19U, 0x23cce921dc250513U, 0xe81cf3dc14e2e412U, 0x723cf2fdcf62d0aU,
  0xbf28f7082324ffe0U, 0xd2fa2207ede9db2cU, 0xca04cc1cda10fc04U, 0x2721f5092adbe60aU,
  0xf181f0449e20a09U, 0xf80cd9120c2defd1U, 0xf0f724e525faf5ffU, 0xd908d61fc40026fbU,
  0xf280affc037dcddU, 0xd190303faf3181dU, 0x1ddfe8a01723e520U, 0x1914f21416ec1110U,
  0xf9060afafdfe1f1aU, 0xd9eb2729dbd73003U, 0x92212eaee11ea13U, 0x19fc07fbc7fe1008U,
  0x2de70f12f403d9e7U, 0xddfe222e1ee020f9U, 0xdfe0e23a041feef7U, 0x1e1833f802d3150fU,
  0xe2f27e4ecf71c06U, 0xe2eae4013309cbf3U, 0xeec60604ea48efdeU, 0x3a1a356c02dcc747U,
  0x7ff202da05ddf0fcU, 0xe2ef1f1326e50021U, 0xf972fbd1f50ce9d8U, 0x44512e42ef1a15ecU,
  0xb3e09ee1ff8e20aU, 0xe0f9f20232f80edaU, 0xda51d9ee3b0bc9f4U, 0xf92c3ed5d2e80a12U,
  0x102935f849cff8d2U, 0xedccfc1fdfe6cb26U, 0xe006caf10ded0ce9U, 0x26301d1fbdf4e802U,
  0x627431810080ddfU, 0x1cbe4fdffcfc708U, 0xc37d3ddb9f61423U, 0xef010a0a02e0ede8U,
  0x1dfa09e0e2d3301cU, 0xd20936280c0ac3eaU, 0xd7e202e1ed16ccefU, 0xa2bf6e3b9dfdee7U,
  0x3c064302e9d425e2U, 0xedde0016efefdbe8U, 0xdf2509eff240ce0cU, 0x333cf30be1da02eeU,
  0x1210f32e0e1f0e1aU, 0xfe30bfdf02114d9U, 0x20eb20093bf5eff2U, 0xf80dfdecdf26fd0cU,
  0x2d2b32fb1b1cecf1U, 0xfd163e2704071ccfU, 0x281019d510fffffaU, 0x22bfb2df6ddfa2eU,
  0x1c12ed17292610f2U, 0x6eef40700ec10d0U, 0xeae603412229040fU, 0x232b243014e3261aU,
  0xf60235e32ad6151cU, 0x1d0afcf1ea16fcf2U, 0xb3df9f4e1ffe622U, 0x217341f111c28e9U,
  0x2f280d0734ea19f3U, 0xf4e22037f742fbfdU, 0xf0ffc2f624051312U, 0x1a33423bfa15f638U,
  0x2e44d7e91b0e1ee3U, 0x3fffd144133d502U, 0xfbcff3dd0b2311e4U, 0x919fae0efdef1f9U,
  0x472ff4f6fd0413e0U, 0x9d0f00cfbf117edU, 0x21cf1fd0ef0fc0bU, 0x20393a0107eef7e4U,
  0xe1d71a0f09d7f6deU, 0xe5e3ee17ffe4d826U, 0xe727e0e6cf07fb02U, 0xbd5e6f6d3e4df08U,
  0xedf825ff17fa2306U, 0xf02e9fff4fa05dbU, 0xf429e4121615ead8U, 0x220611240d1514e8U,
  0xf23225fb2bcb09e9U, 0xefc51b341a35d904U, 0xf81b06fc0f0ee414U, 0x9012b37c922ff35U,
  0xcb200ec603ba2616U, 0xf5021f491d3b00e0U, 0xc8f7c2f3ed25fdf3U, 0x26ed2a1806f73012U,
  0x1f0f34c72ce10b1fU, 0xe8fb13f21e1ce8e4U, 0xdf00162bef0cb6e8U, 0xe0edecedd0d70ffcU,
  0x14e7ebf6d8171bebU, 0xfc17ef32fc2b01e7U, 0xddfcd9c10d2af70eU, 0x906cbcf04c71de6U,
  0x130e320a01e0f138U, 0xee1c1f2bee2304d0U, 0x18ee211c24061d2bU, 0x19f005efe0f108dcU,
  0x362d28271410310cU, 0xf6ed20284327d8faU, 0xfe9fe11ff39faf8U, 0x23151d28fbeb0dddU,
  0xb814cc50002e2535U, 0x144e16f607271df3U, 0x2f041d1d220136ccU, 0x1e1e40223eeb1a81U,
  0xd01d2244eefccd28U, 0x4724ca17cfe43f1aU, 0x3cec343704f92c33U, 0x170e15282af42cd3U,
  0x20d207f429e3ee0dU, 0x2a332d10d431433eU, 0x4d210fc352132b6U, 0xea5c9f320159aecU,
  0xcdebf5dea3262b12U, 0xfe1fede9d3380d22U, 0x17b4293518fbe8d8U, 0xf7284293cd4bd220U,
  0xe0d40513230a06d1U, 0x47fbed3012303fecU, 0x441ae8d331e320e5U, 0x3e6baf50efa182cU,
  0x14dcb4ea102e1ce8U, 0x190020bb02fb4ef6U, 0x27f019f1fcdef813U, 0x2dbb38debc17d83aU,
  0x2ef7f836022b0bf9U, 0xfbcbd70bf210d0eaU, 0x251efdf1ebe11a1aU, 0xf4d7cbc559295327U,
  0xfcc8fcfc03e7fff5U, 0xc8f1fdf3c718ef34U, 0xed2414d3d516bb20U, 0x29070b3e0cdf1f05U,
  0xf4e514d0160efb27U, 0xe3b1dfcd1fc1fd29U, 0xdfd1dfe62b18d324U, 0xe22828ff2c1a3207U,
  0xe3cf140cf50e29edU, 0x16f2d5f2f8edf6f0U, 0xdedec6ba2fe6f634U, 0xcfac91d39b843dcU,
  0xfbfd1e006e0fb00U, 0x1f0f1ec7c4d515faU, 0x1230d82ee20de8eaU, 0x2a26103de3fd3c2bU,
  0xea9cfdc62116c5bbU, 0x3b1e180de6073ae4U, 0x15f51e170ecafa12U, 0xe0dc35e3fbe33a41U,
  0x8f7d30617f101deU, 0x37ebfdf0f20ce034U, 0x18dd04262cf9d23cU, 0x13adc804e4273023U,
  0x16d6d7070bdde007U, 0x39e2d1dd1114d8e2U, 0xdc2fe0ef0f1149fcU, 0xe0020efa35e6fc09U,
  0xd43008fb24ec3030U, 0x37ddcfe202f5f5ddU, 0xfd1622f50fecd739U, 0x51dbcea38e9463aU,
  0xeb042635ec17fd1dU, 0xed2af7ea120f3912U, 0x5a7ee0405df2ae1U, 0x17d7e6133ce8224aU,
  0x1ad6c7ea1736d3edU, 0xe62ef11dc2cb0921U, 0x2c23dfd11e234402U, 0x5de28d3fb060a35U,
  0x21f4fd0b0137b5ecU, 0xe03af7cce8fdec14U, 0x50330df122bf0102U, 0x9f9230803221320U,
  0x14000df55454f8ddU, 0x1b12eb3cd8e7c1U, 0x1902f80816d62010U, 0xc7f82e0a05ec06e6U,
  0xe9e6e7d6f2ef1dc7U, 0x12fff929e0d2fe06U, 0xccf2c7bc06b5f20dU, 0x1a11ddc11425eee1U,
  0xde041bc132ed0b35U, 0x1f8c80a3cd8f80dU, 0xf623d82b28ffd42dU, 0xd104c91832efcce5U,
  0xcd1dddb64a27ec14U, 0xf91726da2c1eed03U, 0x13bded16ca0bc1d9U, 0xf909c62c44140d03U,
  0x642ef1c00132509U, 0xbdcd909fbeac712U, 0x832d827dc31ee00U, 0x2f6114ff4e9e526U,
  0x53ecffe3f8e00b1aU, 0xd407e6ea0704f02aU, 0xd6760cf9bf30e416U, 0x5a7f03f8e7e74ddcU,
  0xdf55da0afa2b040cU, 0x25d518f657e621faU, 0xf71f1dde0410d229U, 0x2f73dccffdeebccU,
  0xdd4113d933d518e8U, 0xf510172dd02c2417U, 0xea36dc0bd015d6cfU, 0xf5de0008be09bc12U,
  0xda1d53f7e5d823deU, 0xcf0fe6f22ad324d4U, 0x130320d5a7fce926U, 0x1812ee1bf6f9241eU,
  0xe30720d9fef33b00U, 0xff03e7fb1717e0e5U, 0xdf10e4214eefffe1U, 0x10f4d90bbd06e7d1U,
  0x421e1a242413330eU, 0xdf9322fd227c91aU, 0x25e2cff4f703c8d8U, 0xf0ede40103d30bd7U,
  0x38fdebfc3ed8222aU, 0xe90e271a18f20fffU, 0x1fd903081ff92ae3U, 0xd9f40cfac604c1ebU,
  0xe525e02c1cfafd2dU, 0xcf15f4f5d925eac4U, 0x171716c6fc212919U, 0xde25fcff492d1f04U,
  0xfb260621d70af016U, 0xe01cf7400de4f702U, 0x1ae7d0293729daecU, 0x1cdefddc2620310bU,
  0xe71fea0a0b1c3401U, 0xe4dc2730ec13270fU, 0x27f315f931fbe920U, 0x71ff50e2808191aU,
  0x3501dd2d1b062c02U, 0xf20b0d20deed03e8U, 0xf620cce3e830ce02U, 0xe30b02fff2fd0b16U,
  0xb7ee50a17dcfafaU, 0xcdc2cc0cf34ff0f1U, 0xdf98e418f5240509U, 0xdaea11e80eecd139U,
  0x2f0cdacbfbf20fc7U, 0x1df4fa08100c0b29U, 0xff0c0ed6f13b05ebU, 0x342f40041dcf0b24U,
  0xe6f31d29cde52feaU, 0xe10cb64dd7f101e1U, 0x51a04f706140707U, 0x1419c7e900e2dbe2U,
  0x2ac336330bf83f18U, 0xddc9e9e239d316edU, 0xdfdfeb203907ec1aU, 0xde0bed380cd9e812U,
  0xff115319ee172cfeU, 0xebf713311b27d6edU, 0x607cfdeeae614e5U, 0x1d16ec3ee6fb2046U,
  0xfe2f01ed261922f0U, 0xd4fe3f261cf0db15U, 0x634f7081af7fae4U, 0x25e82d0520ccef38U,
  0x93317defdc51632U, 0x2307f1050b37faeeU, 0xa05d010f633ad08U, 0xf4fa1accf5e00016U,
  0xd053eeeeae737e4U, 0xd91ff019e01a08ebU, 0xe1ee2070516f415U, 0x201eedd5decb26dbU,
  0xdbe7fff00903374eU, 0xf716eb01170af30dU, 0xe906e51b1328e935U, 0x2a121636f70e22ffU,
  0xee11e5ff2cdb21dcU, 0x1d10332c41e72ebfU, 0xf1e2d01edee102f0U, 0xb31f82c23e526e6U,
  0x133a09ec17eae9faU, 0xee0714ff4d07dff0U, 0xc9f70ae3185af6efU, 0x190f216eebded915U,
  0x7fb824f6e8e9fd0aU, 0xc6e1e3fb07100013U, 0xd34bdc04cd2415dfU, 0x35401b49ca192916U,
  0x5f30e17230813d7U, 0xf8d6291325f20ad9U, 0x120de71b0a101425U, 0x212c12fef0d4ff10U,
  0x60b1df117e12d12U, 0xdce60df0d8f8d8f0U, 0xe31a11f2dee5f6e0U, 0x16081afae2f1bf1fU,
  0xe0322cdd08fb2506U, 0xdbe601451ee6c5e4U, 0xe417d405de1f1622U, 0xf9dd32060ce02305U,
  0xffb15d6ce00f908U, 0xebf520f60f339d05U, 0xe52bc0dbe011f71dU, 0x281a16ffa307ea0aU,
  0x491f33d328ff20e4U, 0xd8fcf814fee90320U, 0xd1ee06b309f9c41bU, 0x2838032728d64d24U,
  0xde6f9232beb25efU, 0xe308220ef0242018U, 0xee271a0d1c0fdefeU, 0xdc1d3014f216d213U,
  0xfb100b1ceaf035edU, 0x31f05f4ef151ef6U, 0xe1ebf2dafc042226U, 0xf3291f2dd5190e13U,
  0xfd1c0c0220e7f3f9U, 0x9e10a0330250a10U, 0xfa09df2d2fff0005U, 0x141e03ed1bf41e17U,
  0xff1b1a1e0eed41eeU, 0xf5d4f915191215fbU, 0x1f28daec02060a25U, 0x3743eef3fe113520U,
  0x1e5ff3061e1a0d12U, 0xeae8051c1e220811U, 0xf322d0dc361e0204U, 0x1f272a3b11fdc82aU,
  0x1958df0cfccd1703U, 0xdae800e9fd70b521U, 0xb7ace4ea011cf2feU, 0xf91e181b16e52deaU,
  0x4010c0e0fe015eeU, 0xfcffed09f5fdd20aU, 0xdd0ed909ef12fde8U, 0x1f511c06dcd910deU,
  0x24f6f518fad0ed14U, 0xf30af603f4e01afaU, 0xf8fa021fdefbe7d1U, 0xf3ecf9f701f8d609U,
  0xa0d5008f01022dbU, 0xfff413e308e7e2f6U, 0xca3a0ed5ef0019d9U, 0xe61d124b0e0c2be8U,
  0x153241fc2205f8ebU, 0xc5d53355f631f3faU, 0xe02dbbf0fe0317ecU, 0xfb4e160eaee3eef5U,
  0xc632f6d318bf0e02U, 0x18fe11473139c523U, 0xf41aebc6da1dd014U, 0xfe184e5e18f22121U,
  0x18071db93faa001aU, 0xe917172cfd14e020U, 0xd72ae31e1513a5cbU, 0x1cd1f1ccd7c70d24U,
  0xf308efc9e8f52d9fU, 0x2023f121e804e624U, 0xff10dbe8f3fd0e07U, 0x153bf7f6fbac0003U,
  0x12ec061f110b1e35U, 0xddf70d27001ff2f4U, 0xe5f70cea112aeaf3U, 0xe2020f150af2e5e8U,
  0xed05fc19110c13ffU, 0x12ee24143437f0dfU, 0xf0f4063cea0ced15U, 0x26eb100dfe1f23dfU,
  0x60e28d0fbfed63aU, 0xd9d92f1803010ad3U, 0xd9f811cd3a41fc1dU, 0x42ee4368cdd6030cU,
  0x53990c1103f422edU, 0xdd70e0135dcf117U, 0xd861f50fe606e517U, 0x30330d3602e5f000U,
  0xea0c18ec5411cfd6U, 0x17d200105614f219U, 0x841fcdb01eadc2dU, 0xf1292cf2ef0b1319U,
  0x2212a1521defd01U, 0xe1c51c3413f517f2U, 0xe118cef7dde5e205U, 0x11f220d810c7c20fU,
  0xfb1142cffaf042d6U, 0xed042f1c13b6d205U, 0xf2330e10d2071308U, 0xded300fd0cd118f6U,
  0xd60d00e00e0fe0eaU, 0xd7e134f206fed101U, 0x1402d0e9befb19e9U, 0x340cd3cebddb2ff4U,
  0x4119f90be71cfde8U, 0x1fe9f727da0b06d3U, 0x2fe518e20040ec23U, 0x10eb38360e080debU,
  0x10163321131f0304U, 0x7eadadff709d8edU, 0xcebdd171321e2f0U, 0x32831ed944704fbU,
  0xdefe22dbf8d514ccU, 0xdf201e3517eee3daU, 0x18e128cfd122fd12U, 0x2e0efde304012237U,
  0x2f0c2b2cd121352aU, 0x5d9011718fe171fU, 0xd9e90a7f59112b26U, 0xf20b2bde0c1f221dU,
  0x12222ddcefedfe0fU, 0x120cdf0ae303daU, 0xf5422b1215301d30U, 0x14f00c2221030519U,
  0x518d7c3faf8f312U, 0xe008250a23ed1212U, 0x2cece0d2f9f921cfU, 0x1340fe23d5e0bf18U,
  0x323322fb071703f7U, 0xefd338dff12206d5U, 0xc4da0408f424e4f4U, 0x2305d9ec32c6f116U,
  0x1e9ebd8eec7dbc9U, 0xddeae5d122fecfffU, 0x4dde329fd0322d9U, 0x661da001c1c2c16U,
  0xd1fae1f4fcf404e4U, 0xeaf4f129b804220bU, 0xfe3cfbe5e42cf004U, 0xd5ffc1edf021d2ecU,
  0xf3ced532f5250ee9U, 0xcf151fb435bf13c1U, 0x142bebd811f5edcdU, 0x1b4f44fde4d92af9U,
  0x2a412e25d80f1b1eU, 0x20d39512e0307f7U, 0xcc33ef000709ddeaU, 0x2b16f1edb7f1e5ecU,
  0xe1e53c17d2ebebd6U, 0x1c052e40fa1adb21U, 0xfffefdfada04ff10U, 0x21cf638f60edee3U,
  0x8f8de0d01c90e2fU, 0x1618eb0817ea04f1U, 0xceedeae0002df7f4U, 0xf50d39d2b5d3ce0dU,
  0x2c08222cd710ecd4U, 0xfbd1f724e91a04e0U, 0xd81ed6f5ffdb0fddU, 0xffead10003bbc919U,
  0xede721231c01314dU, 0xfee025eb26f9e4deU, 0x71cda0edb152011U, 0x7d72920c8c92112U,
  0xdb1df90e062b052eU, 0x22de3d0fdf43120cU, 0xfcfc1946ea2eedeeU, 0xc14f5fff62ee6deU,
  0x16373ed72fe10c01U, 0xc0bcf7363c56aafbU, 0xb925e0d2fc49e3daU, 0x22c3a1eb0fb0004U,
  0x4599ce1433ff27ccU, 0x10d70ccd1d34b703U, 0xb55cf4200d50cb24U, 0x29541f1fea2602e2U,
  0xec0a21da5eedcf09U, 0xc4d6d9ce501bd3e4U, 0xf451cf21fd06173aU, 0x2107231117c446eaU,
  0xeb26382045d75022U, 0x110e13d03e7d415U, 0x186109fac72aca1fU, 0xe2f840f5a2ceee54U,
  0x170b1df129c504ecU, 0xc7d51fee09ec1de2U, 0xf61d07cdd518d3faU, 0xffb154043a062329U,
  0x15444418e0f535faU, 0x1515f1350e58a11fU, 0x32fc813ca0de8ebU, 0x2b0916d78111fff0U,
  0x37f92cf112f11eedU, 0xc909ec0832f30125U, 0xcc021cc0f1f1d3e9U, 0x363209f0b2ec0821U,
  0x37dbfcfe4dd02f14U, 0xd41bf137e937d90aU, 0x2402333afd40dbd9U, 0x70d46dfcc14c137U,
  0xf72adb2cffef09d2U, 0x1f1132290932f8d9U, 0xfcece298fb0f1eeeU, 0x240e90fd6f60f2eU,
  0x12ede9151bf2db25U, 0xd12f35f624fdfa11U, 0xed8f94452dc00f6U, 0x33d837200e18330aU,
  0x10ef3ee52ac947e6U, 0xedca52e316180ed4U, 0xf70eeaf7dbf8194eU, 0x2536e807e316f700U,
  0x3c5a15cde9d11f27U, 0xf928564108fa05U, 0xc8f0b80c3901d4fcU, 0xb474af01724d357U,
  0x3d52dc1501f11fe9U, 0xe608e0110173c5f8U, 0xf3ddfe0df80a1107U, 0x170634ecf1bbf300U,
  0x18e61a173ecc1612U, 0x3d5f1a0de1c08f1U, 0xeddcd810c940bcc9U, 0x1e2f2919080bf522U,
  0x2d17ffcb00e4082aU, 0xe3bbb036e6ddf9fdU, 0xe14bd415bcf821c6U, 0xc716e90bb0ffdb1dU,
  0xcddd2531fb235b04U, 0xcd4f131ba0ee6U, 0x848dbdddfe916f8U, 0x294c0f574031f7bfU,
  0xeb0b64d2e1c81631U, 0xc3d2101b0e1607e8U, 0xd8e4aef40234fde2U, 0x2726cc48e8f610f5U,
  0x71201072aede3c9U, 0xe1f73e0126080106U, 0xe026d2ae0b23e00fU, 0x2e145b073209fb0dU,
  0x22e330f2f3c7391fU, 0xc71bdde9d6f112e5U, 0x11ee061d2f2bcac4U, 0xc0f1fc4b9ede1daU,
  0x3f38fddf0ef038d6U, 0x24e124e9300cee01U, 0xe636f795c6e301faU, 0xfb2cd2f722bff804U,
  0x14f2f0f2f02efe1eU, 0xd2dd29eb291e01c3U, 0x1aef08f9fc36f5e5U, 0xd1ce1124d50af0eeU,
  0x14ec1ffdca36fce6U, 0x1bf41a2007eed5e6U, 0xebd7ea5b3336f2daU, 0x31f21e1b819331cU,
  0xfb1d17eae0fefde1U, 0xde11f5f5f71cffe9U, 0x37e1ee01faddffdeU, 0xe015231617d8018eU,
  0xf0f7e4261920e0f9U, 0x1c0a2432c1e41632U, 0xea052ad506eb2a1eU, 0x1241209f3f217d3U,
  0xd7e0de2d2022112aU, 0x1415f3efc0f612e6U, 0xf5e21ade0ff1f2d8U, 0x2adb000ed1ee0819U,
  0x1ec8f1dde3e30024U, 0x1a11ff2c300f1100U, 0x19fd2e1513da35e2U, 0xd751dad2c0e3ef07U,
  0x12c8d82ab900d2f6U, 0x3348ccdd020be1c4U, 0x1c0f2ee626ffe9ccU, 0xcfe4ece3e2fe18acU,
  0xffd4b6e8fae2160eU, 0x836ffc3dad23104U, 0x2616f429102224ceU, 0xe20d03148105b500U,
  0xe102d02dd411f2deU, 0x12f5cb05cfd5f9e5U, 0xc3717dd33ce10bfU, 0xd30fedfa20f210ecU,
  0xe711c3f052e11e0eU, 0x1be10bf71cc1f714U, 0xe7c8cb1918201d0aU, 0xeb1403fd123700faU,
  0xd817c8142ee2ece7U, 0xdce52401e922d1b9U, 0xd146faf9411228e1U, 0xfd16d61811090638U,
  0x523c21f122edbedU, 0xde00d01e0310ef6U, 0x113e041cd3f5d52cU, 0xd7d6cabd1ccef310U,
  0x1dbfe083bcd02e7U, 0xf717dce106befe27U, 0xee05d1eec0dd06e9U, 0x1b1a02d6dc0003d4U,
  0x1db7ce2811e9da0eU, 0xe8e6df04e5cd2ae4U, 0x6d523e701cf0cdcU, 0x2601f206230fec26U,
  0x4f5e9ee2bd10003U, 0xe3dae91121fb0b15U, 0xbbfee1b1b1500e1U, 0xbfdfcdae2ffe207U,
  0xf124ff1601f0e7e7U, 0xecec1627fee8fce2U, 0xdfdf90529111823U, 0xf602d70aee09313dU,
  0x1416dbf0d9ed00cbU, 0x2639fc1468e11ee7U, 0xf1e7fc09fcce26e2U, 0x1c81aaf15ddfefdU,
  0xfbf4dce8270dd3efU, 0xfd3be12d0f03000dU, 0xe0eaeb14d7d508eeU, 0x21ff193cf4135600U,
  0x2216230f45eae212U, 0x2e0814ecadfb34f7U, 0x1fd72a3420e4fa32U, 0x24190fdb0e20ffefU,
  0xefd8e9ed0b03c5fbU, 0x111df5fce9df11baU, 0x1217140de60840edU, 0xd2dc050019d9edcfU,
  0x17e1ef0649071bfeU, 0xec2b28cdf9db09a4U, 0x142d1c2f29f042ddU, 0x16e4ee1dfe0030efU,
  0xf80be53cfd39ec17U, 0xeaefed00c7d438b0U, 0x2fcff42034faf4f4U, 0x26f6e607df11e5deU,
  0x1627f7d3f71716e8U, 0x28ca07e2f911ee36U, 0xcef0e80a2ccdc8e3U, 0xffd8f90804b23903U,
  0xfdddf3c2330fffffU, 0x1a3bcce805e7f30fU, 0xd5eafde3dfdefdeeU, 0x33dfc10a1adf0ef0U,
  0xedf0d20deade1114U, 0x50e4fed5d1d31b09U, 0x3ef2df1ebc41e17U, 0x1e20ece7ebf43fe9U,
  0xf2acc2b1130f6deU, 0x4f49cc22f2074023U, 0x256042d331ce091cU, 0xd3241f9fcc8e3ddU,
  0xe7c4c721213111ffU, 0x491921cfc2f04734U, 0xfdf352c928e9edb0U, 0x38ceafe228d7e445U,
  0xe7ef21d6a3d8e5daU, 0x24e5c7fff1063f2cU, 0x412dcf6bf3bfeaaU, 0xfb0d15adcf32cefeU,
  0xd8d40b1ed82cf4d8U, 0x39f3f313fb2940d9U, 0xb1f123bceee2be7U, 0xc7f882de3cd82504U,
  0xd7ecf60a160dc2f5U, 0xd3f7d1f1f4163fd8U, 0xe81a3f1632f3441dU, 0xac0dff4dff0d9f5U,
  0xc1df1217d1fa232aU, 0xfb2cfdcfe8d904a9U, 0xe9ebeae403e646e5U, 0xbad1be304bfd2928U,
  0xd9e50bf6f3c4101bU, 0x3ccf30d120160be5U, 0xb4d9ffcac5f53740U, 0x19f0c118372de8f5U,
  0xf20fcceedbdffe2aU, 0x25e6f4d32a0d04e8U, 0xebda0bdc4be4c433U, 0xf805e118ffd2e7ddU,
  0xecded2b40232dd12U, 0xf3cfcebb081cc9edU, 0x19021af5dde01423U, 0x2be9c22539033012U,
  0x21d8f3d731d325f5U, 0x214727f8220607eaU, 0x1b08232debf23d0dU, 0x302e1cd02bfe2bbeU,
  0xfeb0c4001533c1b9U, 0xe2f52cf2040209f6U, 0x222f0cc1f9aeca1aU, 0xf2b5502a4139f44fU,
  0xe4caf51feb343932U, 0xfbfc00e20bf01317U, 0xd6c6f3d8db17b736U, 0xc919ffd7ddc2e10cU,
  0xcc4119282ed9c532U, 0xf41e61709e01600U, 0x1feb03e8cfda46d7U, 0xf74fe3fc1a0ffd0fU,
  0xeb12dc08f61fe1f3U, 0x16def5114d1304fdU, 0x20221510f0cf1bd7U, 0xc602e4b5d8e0202fU,
  0x71d322326e107e9U, 0xf1f2c73718281b05U, 0x41f526f8c716ca39U, 0x1339f43535000f3bU,
  0x2016c9d7f43cebeeU, 0xf93bcfcff4d13e07U, 0xaea24111908065cU, 0x24d82f81ce2c1020U,
  0xf7bfcaf2c439d016U, 0x35dad0a82533fa08U, 0x180d2e3522292bddU, 0x62fc1fa27eb14ceU,
  0xdc5e7d33be8f1baU, 0x2810f3043db04c18U, 0x4fdb38dcfeb2da18U, 0x2cea29d4b4ed18f3U,
  0xd8c0e12416fbd2e7U, 0xc412e1f8280627c7U, 0x1c1f16e7fcca02b8U, 0x20e3e6cfddf4b6b6U,
  0xbfce4c7d2ff0cceU, 0x182ecce01fce0afeU, 0x1ccd3de4a22e4eeU, 0xee1432fdf3f6d619U,
  0xcd1ae3fe1d080bddU, 0xcdebf0eebf08fa31U, 0x4faffc30415eaf0U, 0x12ab9e5091c1bd9U,
  0xee1f36e4022807efU, 0xef06cce82bfdf7e1U, 0xdf20ce0620372907U, 0xea23f6feee1df301U,
  0x50d3f1f3ca120c01U, 0xd7e1d31e362b24e2U, 0xde28ececdf43eae1U, 0x141e0528f82336d0U,
  0xe64001031e060e19U, 0xcbeb13d4400cec23U, 0xea3ff1e71dd3c436U, 0x142a0bd1db05fdd7U,
  0x13901d20fce0004U, 0xfefd04d0c92feee3U, 0x1f08f72c212a0f0bU, 0xee040a03f6db141aU,
  0x1f611d9edd8e3b6U, 0xc6eadd28cbb2fbfaU, 0xefdbe4d691fadc11U, 0x17f209fff2c71d22U,
  0xefe02035ddea0903U, 0x15ed0b340e23080cU, 0x1dfdcc261e1d0128U, 0xec29cad3c81612e6U,
  0xe51e3007e30c1cf9U, 0x10d608e62429092bU, 0x2dfe10dec4dfeb0aU, 0xe61ae5ebf5dcfa09U,
  0x150d0c2b2fdd1117U, 0xe2e60deff6d8e7f1U, 0xe1d21712e2609bdU, 0x1a11edf8e80de8d0U,
  0xddefd9eed4e529caU, 0x1307d52d1af110d9U, 0xe11c12142dd8fd06U, 0xffded21d1ef011e4U,
  0x9232efefd202a38U, 0x3212333082309e5U, 0x20080e304718e0faU, 0xd81e2b21221ff8faU,
  0x142bf5de0b25e305U, 0x26ccf3f5f0e0d41eU, 0x903e0eefdd5eb2aU, 0xe2eaf024ec08fafcU,
  0xf72717d6fd2c17deU, 0xd2e92911e51fde0cU, 0xfdf6d2d80bde0edcU, 0xe62741e1d7292128U,
  0x2d4b1407fc181bdfU, 0xe61521cc052b11f3U, 0xd8c5e2091de7f41eU, 0xda1a1e0ce3eef22aU,
  0x17d707e61af608efU, 0x8eabfde0cf0f21eU, 0x11e72e281501d9eaU, 0x236526ace9ebf2dbU,
  0x6bd2a1e0af6e7f7U, 0xd911d65315e40edbU, 0xd51f27eef727d9f4U, 0xd8e5f4e4dce7fccbU,
  0xf2fe0bdf13db16deU, 0xf6e1f5f33ccce101U, 0xf5d8d1f236f003fdU, 0x7f4f536201410e5U,
  0x2639fd090ef10712U, 0xc6f5e2eb344105f8U, 0xdd1bf5e5da20e029U, 0xda41222609140cfbU,
  0xf4f026c204f420b1U, 0xaf4320d33321af6U, 0xf0c9f6a9e31001feU, 0xe240f391ae9f03bU,
  0x82d1ef72aa0d30bU, 0x2e011ee71f25e00eU, 0x22f6d1fa2f24a007U, 0xdbf41103facb2204U,
  0xe7e33281e209feafU, 0xdb1ce2f325e22fd1U, 0xb04d4bdc11bf2f9U, 0x2a03ead216cac2d6U,
  0xfc0321222b03304cU, 0xec0c1c20f420d7e7U, 0x20e72715e43128deU, 0xfce6d902f50af50fU,
  0x200fe1602031d0eU, 0xdd182e2723f51accU, 0xdece0c4be2f5d800U, 0xda27032a1f30d918U,
  0x4c4503f40de30801U, 0x1a1bf63624e50d2bU, 0xd2e3c31b0f42f50dU, 0x2e3d120ef1dbd7e1U,
  0x2ebe052029e0ece5U, 0xd1ebe016f6e3ce03U, 0x12660906f83fff15U, 0x167f105dd102f61fU,
  0xe6350b2042ea19d2U, 0xca0d212844fd01f1U, 0x1c41e2d108fefb2fU, 0x1b2228b928ff2017U,
  0xc250903eef901f9U, 0xd9d7d223b213bcf9U, 0x14fd0a01f12af5eeU, 0xd9062910b6d501f9U,
  0x15f8f01f0dd010ddU, 0xe2bc00fa2e1ae4f3U, 0xe3fddabac1d82fU, 0xf0111e0d14d904f2U,
  0x2d0407eabfc2080eU, 0xddfdfdf3232bfb22U, 0xcddececf2707e4efU, 0xf04f0dc82ddd420U,
  0xe4dcf604cd1827c3U, 0x22123348f0df14eeU, 0x1005ed09b014f4d4U, 0xef3fedfa29e92004U,
  0x1a0af8222dd12b00U, 0x20b0912e8150eedU, 0x12e8e2352f19e90bU, 0xdfdd2817a311d6edU,
  0xed1add1af22aebcbU, 0xfc2ee2030dff27e5U, 0xd5fd27aff0ec17eeU, 0x727ed32d3de08f8U,
  0x191021e41825d615U, 0x36312301f115e5c4U, 0xe62212361509ec11U, 0x1d231dd31f34e82cU,
  0xa2ce41e011a0de7U, 0xf9dd1a13d1ddede4U, 0xd6f4cce91c2ddce8U, 0xf00629e4f7d1f3faU,
  0x252c14ec331bf0d3U, 0x22b9e2371e212ffeU, 0x2d262a220a07e519U, 0x174027360cfdc43fU,
  0x1374e00912bdfb15U, 0x18f016fd4347b0e5U, 0xd90c9d6e8f1db32U, 0x2d34fa10fad8292dU,
  0x23ed0326fe2534dcU, 0x3d0ebe5dadfdbf7U, 0xffe30010cf3ed4e9U, 0x256bebcd18fdd6ecU,
  0xd4c8d52726ddedefU, 0x4260f5014f601edU, 0xf81ce3cd0a34e7e8U, 0xd07e4e4db18ddd2U,
  0xeaa5f2f704334efbU, 0xdcc516f21de8fee3U, 0xfa3aef22301b2535U, 0x13351d4132f70b23U,
  0xdf2303f5d810fa17U, 0x1104e010eceed90bU, 0xb10f2cafcdbf030U, 0x2232281a9cfed1f5U,
  0xbc310cd3c0090eecU, 0xffd3e6f9e6ecf9d6U, 0xe3daf61827201225U, 0xe51cf6fb39152f1dU,
  0x2707031542e51ae2U, 0xcfc704060ef9fddcU, 0xe12904d2f1e1cec6U, 0xfa16110ba5f2e3d9U,
  0xea2e0ff5b9050db8U, 0xf2ec25e701ece5d1U, 0xfef8e9aec60e20e6U, 0xf8ea00f02ee8c716U,
  0x362ae1e2fd2016caU, 0x10031e0c0ff306f4U, 0x31dedd1e1beee5fcU, 0x17d1edf0d5d4f121U,
  0x1ed6382e1cdc34c5U, 0xf8e2e7f4fb15d8c9U, 0xf40c1142ef311610U, 0x1421eb10f8e9fa30U,
  0xd80a2c08ed08081aU, 0x3f17fdd2fbef1ddcU, 0x13fd38d8c61a11d8U, 0xc101f8dd17d2179fU,
  0x1c11182f2e140ad2U, 0xebf0c6fadf0010e7U, 0x173dee401309420eU, 0xf61d2122151b56f8U,
  0xcad5d63b153c213aU, 0x15261938f7263737U, 0x472a0a28be104913U, 0x11b4420ae3f81411U,
  0xebdef4fb082a2331U, 0x4a350a1408140625U, 0x3306282e0bff1402U, 0xcf20f296fbecbed0U,
  0xfef0f311bc1de517U, 0x335816e9070be8baU, 0xf7302424f0f00fd7U, 0xcd8f0efe46dbe0b8U,
  0xdc20e6f2551bf3e9U, 0x3e442afef3e420e4U, 0x4a07f400f8b9fbf6U, 0xdcb5f3abac43dbfaU,
  0x24eecc49a301fa2eU, 0xfdcfc3d2c1c136f5U, 0xb384eff24f130c4U, 0xf80dd30a0e3f111dU,
  0xf307da1a2526e0c1U, 0x1e16e71404c81109U, 0xea1ecd0ec41f37e3U, 0x2a14fa3a3e2127b6U,
  0xef26f6fdedebdbdcU, 0xc7cb2f0c20e1cd15U, 0xafcd7e060febaeaU, 0xf4cfdfd725d7e142U,
  0x1128db0ceaf4f341U, 0x1fdfe8db17eaf5U, 0xfde0f6d6092a2311U, 0xfadcdccce0fdea0eU,
  0xeb722e0ef0de5d1U, 0x112dcc20ee833f9U, 0xd72cd60bebeccd08U, 0x4022c9bfe52625c5U,
  0xb281e3d00d37ce13U, 0xf8392af9dbbd0c22U, 0x3ded0a31f8fde8efU, 0xf71b25dc44f21115U,
  0xf5aa350338d928f8U, 0x4130db3015d9e150U, 0x14c2e2ea15dc273bU, 0xe597ebfedc29ef29U,
  0xc4c726fdee13feeaU, 0x1fdaf8f6e5332317U, 0xf3baf72c38e9352aU, 0x1c0e031de6340d34U,
  0x1de81f3fed0716f8U, 0x38dfe2010c24fe36U, 0xe10b2614d62c3ffdU, 0x2f2ef11c1c106147U,
  0xb2edee5ff21fcf7U, 0xd746f1001e0c0af5U, 0x2905331836cd13f5U, 0xfd38361b3e2e5e19U,
  0xffd728022d18b3f9U, 0x644b5f09ff8dc1fU, 0xd6fb42fbe5011705U, 0x1fe730ad02f4c621U,
  0xe4dbe1352913dd3cU, 0xf21416dae41e29bdU, 0x233d1f14112fed14U, 0xf411ff11dd47d81eU,
  0xfb06d61d2a12c8d4U, 0x2b1ac9f413d43102U, 0x43f232de2a3f5f4U, 0xedeed511b9153e0fU,
  0xd404e8e519d1eb2eU, 0xc4f2f2ded50735b8U, 0x14cfde21e4d5f1dbU, 0xe9ef001a3be80014U,
  0x9e7c3b621061503U, 0x3116e709dc102ad9U, 0xd8fcf30a23ce14d9U, 0xff062a0d08ee1239U,
  0xf28f60ff3d6b342U, 0x27d8d1e71201e5fbU, 0xc8fdd6ec14302322U, 0x2d230ed834e44f36U,
  0xdaef2a1be63cdbf9U, 0x2afbcbbef4d3ff15U, 0x1b2af9dce2b527f3U, 0xcff2dfe110d33defU,
  0xebc9fe0c08151437U, 0x3703f603bb123323U, 0x2df239d034f614d4U, 0xf0d02ef1240f5fdU,
  0xd0e4f134c9eaf131U, 0x4100f017fcd03536U, 0x21c03617e52d56d7U, 0xaa7cfcbeffdca12U,
  0x22d6ddea0e2eeeffU, 0x3648182df4e81deeU, 0xf80b30d3dc07132aU, 0xf21205fcfd001afaU,
  0xd3ddeff10249c2e1U, 0x1a4efbc5e908410aU, 0x4f1c19d13addeffbU, 0x33edaeaa35f4b80cU,
  0xcbd208fa0aed0dfbU, 0xff8de974ee03812U, 0x17a556e746b21319U, 0x2fa12ae8bc49e1d5U,
  0xe8e5c031f523de3dU, 0xd19c4e5aee55115U, 0x3616561040e14f07U, 0xf03f8109fa5640daU,
  0xa90ae7ab3e020d3eU, 0x403806ed13fb1505U, 0x10da33cf08da2d79U, 0xf2eb24382c1930e0U,
  0xc3bab1f9503e0d25U, 0xe2712f136d913ffU, 0x21f6fd29050930e9U, 0xded21fc435fd193bU,
  0xdaeaed12f82fc64eU, 0x450dce99f3f82026U, 0x35bc413535dd06f2U, 0xabc4bab64808ef3bU,
  0xccf6e63730339b1aU, 0x20dbdb7ddda240dU, 0xec08143bfaf152efU, 0xe41ba8f9450703a1U,
  0x3a4fe101b3ae4d2U, 0x3c184b0002a0fe36U, 0x20241cda1fa7f9c3U, 0x11233e26050f2938U,
  0xcfd825d50ff5dc3cU, 0xf2101ab10ee51921U, 0x1eb83b070506d3f6U, 0x6cdceee45d33b3aU,
  0x6d9122908db1910U, 0x1e331b07f3eefdfaU, 0xedb9221f3113fb0aU, 0xae604e23c061547U,
  0xd9fee4e7faf73325U, 0x90f0ad025292b1eU, 0xe4da2b110d2bf91bU, 0x3009cd1112e7071aU,
  0xda1126f5deefce1fU, 0x27ff152433e23a1dU, 0xf8bf051f38152a2dU, 0x22ba18cc1cd26822U,
  0xac8c2f53109e3d4U, 0xfdf7a5b1d3eb3bc0U, 0x321134dc2ce3eb44U, 0xf110e5dcb62801e3U,
  0xfda0b628bb43c008U, 0x1f36b7f5ba991ce9U, 0x45ff2ad4da0ce328U, 0x1feb0bf42464a04U,
  0xbac3fd194f31e0dbU, 0xe2e6e80f04d810f3U, 0x1b2120c43ae304c5U, 0xecdb2097aa28fe08U,
  0xd4100b0713f4f642U, 0xf0d42e14d84128f0U, 0x2cd8e7ca3fbaf218U, 0xfcb0dd1b023c22d4U,
  0xd0228c00c16dc29U, 0xf220d81a19fc1336U, 0xf7fce0d52eeae605U, 0x2b1333d2eba82033U,
  0x1d1810df5f17d916U, 0xf51a2805d6d2d85aU, 0xd5f70a7f362baa56U, 0x3801babd19b35045U,
  0xb2dbf3e6d01d2ee2U, 0x3a2e42d107393b52U, 0x3ef6e1faddc9f511U, 0xaf92013912d7efdeU,
  0xc23e6e22203d0e2U, 0x1604ee2ac62bf33bU, 0x1505231d08c7d0cfU, 0xfae55c1f17e5e603U,
  0xfe02f5c6c5e8fd29U, 0xcffd25ef4aeceb17U, 0x47da46fb03cfe1f0U, 0xf6caa61cd703ed2cU,
  0x25c3fc18eb3501feU, 0x211e10ba4afe0dc0U, 0x1519e7fb1fbe28e6U, 0x181a0adae049f9d0U,
  0x21c4c4d1e9da2422U, 0x5224f5ed1ff91a21U, 0x4351ee321f53cbbU, 0xbef5cbad45facb14U,
  0x1512c0f10ffeecc7U, 0xded3290e12c711c8U, 0x3e1a10f321ef3d26U, 0xdde308009c38bd25U,
  0xc8b93da9f1f102U, 0x1200fefbf6b3130fU, 0x3fc2d2fb53defd0dU, 0x3607b416e850ec00U,
  0x9b0602224f30d6d0U, 0xa82223b10ce11cf9U, 0xa3cca3063a22cc0cU, 0x2936e623f351d1b1U,
  0x50f06c604e2debcU, 0xfbe815023514200dU, 0xf01f3c4fcbf0ff2U, 0x12c4e60e07303850U,
  0x1bdba1aa1c09c142U, 0xbfff42b3ecf5ec3bU, 0xd30a10deebb3f307U, 0xf0fad5bae2bd47c1U,
  0xdbdc1ed615e5ecb7U, 0x29cc11c939f611c9U, 0xb619f926fff3c0ecU, 0x4535cbfbd6de2cc3U,
  0xef111b2e60824dcU, 0xe654c31cd2165513U, 0x34a802d41af7a131U, 0xfcbfb263824183dU,
  0xe0bb1cc80336e21cU, 0x352b221c1cb543cdU, 0x1b34d3385731d339U, 0xb90eb6d3cb2fc84dU,
  0x43db3011220ddbeaU, 0xd810393142334131U, 0xf52de42d4c26d006U, 0x33fcee5c2331cd27U,
  0x2dbd28d9434c1f1dU, 0x305f8ed67df3ff7U, 0xf024071fe321dad7U, 0xc2ca0b0c1549517fU,
  0x4029e5cf0830d7feU, 0xdeded1f03b063f29U, 0x311539dc09dc4223U, 0xe92cfcdd01e3ff1dU,
  0x1a02144e34d5f1e2U, 0x332b23b00b1313f5U, 0x3dcc3bccefd62e5eU, 0xc6160eb4c200f2b4U,
  0xe3eaec11ed28ecf5U, 0x3c52bdc3fa0649e1U, 0x16e107c93824f81cU, 0xced1bf4402203f8U,
  0xe8e8dfea24e4fe1aU, 0xc4113bc8f20f0bfaU, 0x50000cef54aa5b11U, 0x21103f25f13ece26U,
  0xbbbc0a14addef7daU, 0xfad0dae4d5a914c4U, 0xef8e432e1fdc91eU, 0x20d03228d4c606d7U,
  0x16d12802d028c1edU, 0x19231de83f0f0fdbU, 0xcea05310d29eeb9U, 0xe80441cddfed2606U,
  0xfe13d6ba6410d5f5U, 0xfc38c3c3e7c5c95bU, 0x16c7c91f1cb0ac57U, 0xd4cacadfeea6ec31U,
  0x54fafada21f41727U, 0xdd1609c1eb06b8edU, 0x2633f3113a13fc0cU, 0x1ec8172e1a1dafecU,
  0x5bb8ea0c16b92107U, 0x15d1093d3cf0deecU, 0xb64f022c106ed1fU, 0x335dec6c0bf65608U,
  0x2c0c073433101507U, 0xf4e7d2f55ecbf6f6U, 0xff1f2ce12fe4d623U, 0xeb0c2ac93036340dU,
  0x2d4a24ce65c12ed3U, 0xc2d9e735fef923f6U, 0xf4500808cd0de22fU, 0xd2004e30d42aacf0U,
  0x24f7510e0a0b55bfU, 0xc2d2e239d60302c8U, 0xc3170401d50f390bU, 0x34bc4719eff52e06U,
  0x72e1002fab016d9U, 0xa24055b093fc11eU, 0x17fcbde0165abbcfU, 0x21452d06a71513f9U,
  0x48380ec33ecad8b0U, 0x2a14fa22da03cbeaU, 0x1e2018c92c4dfa02U, 0xeb173fda041e0a05U,
  0xdb32391130fbfdcfU, 0xf50c02211304f736U, 0xd2210d337c2b2700U, 0x12081f1abb04ea33U,
  0x16293901dbf8f1beU, 0x2adde4140d36cfa1U, 0xa0503d11844252cU, 0x3f53d33e7dde427U,
  0xdefd01d92edf21ddU, 0x330c49ef322016e3U, 0xf639167b270f1343U, 0x323936e837e92bf6U,
  0x27fde8ff44e800ecU, 0x270b10392c25f0f8U, 0xd10fd8d5ef38dff3U, 0x4b06130633e12532U,
  0xb122ee63a20e537U, 0xcdf64625091b27efU, 0xf50cc4ee471ce5cfU, 0xe1f3411c5ffbf5bU,
  0x441eef109fa0df7U, 0x2ee4c9f61248c1d1U, 0x1bb1902dd261317U, 0x1e3b4241da1c231cU,
  0x44d1341f1cfd05e3U, 0x2cf91b02d4c81ce3U, 0xf623ced4eb232202U, 0x495c51ede30808f5U,
  0x28fd27f1fb1126d4U, 0x7e4f061bd00d9ffU, 0xd2fa04dec6f0f8b1U, 0xdb9ace5e1d6dd19U,
  0x24b02ede05e4f9dcU, 0xe3db17b70ca418fbU, 0xf9e0ddf0091d2bedU, 0x1bed3c48eb28ed30U,
  0x1a610fd139282f15U, 0x1bb52c531f461bf5U, 0xf13ddb1e1e1f2ad2U, 0xf2261c01a7e612ffU,
  0xe7002af015c00bf4U, 0xefeafa5a493f05d1U, 0x1c30d114233eb615U, 0xd412091a3de22d25U,
  0x353f14f24cfa0bedU, 0x50938fdf2eeee35U, 0xd3081fd63aefb6a4U, 0x6f42d11f9d41dfaU,
  0xda0e4214f020e881U, 0xfdcf30eae40ed7d4U, 0x2e0df1c3d506d415U, 0x141d1918cca9e7f2U,
  0xdc1b3bd8f5ebef1bU, 0xd3d6f31c23e3cabdU, 0xe6e8d5e1123416dcU, 0xf8d2e33bd42df112U,
  0x423b280b0df710deU, 0xcecd1a10043dde02U, 0xca0b180b05261537U, 0xe8e7212ade0c112dU,
  0xcf550f04c3eab131U, 0xd8cb15e401ef50dfU, 0xf53fefde0b002df6U, 0xfad93a50f6b51cd1U,
  0xfe01e262890be601U, 0xd5a0290cb1cf30abU, 0xcd331cb06215b514U, 0x12c3fae4efe9b544U,
  0x2c131fcc1a8bed4U, 0x6d84535e95023b4U, 0xff21b3cbde512cddU, 0x2522cf3e33b934e3U,
  0xc1db02f9bcff9a24U, 0x4543dc161352f236U, 0x2a8dc1e05e34e34dU, 0x2333afca6c06fe32U,
  0xb137cac43b3da0eaU, 0x44bddeed1728314cU, 0xe02dece93e4b0410U, 0xb2cbfbe7a31a3526U,
  0xd6d498fb93e8954dU, 0x8e116ecb1f90e21U, 0x36a037ea6321e235U, 0xc9f6c8a37cebcac5U,
  0x9e9b9e39baefe527U, 0xac3f9640ca8e3140U, 0xbf11e0f51f7ff28U, 0x1009b8431ecef1b0U,
  0xec7bde8d944d843U, 0x32319ba2e11ee740U, 0x5591eedf2a2206eeU, 0xf8f0c02bc923fcbbU,
  0xa5eedcf6fbeaa0fdU, 0x4e01b6fcb6c42bedU, 0x58135d3310d0d1c7U, 0x2303bd01d3e4cf9eU,
  0xa309a508c336a54fU, 0x241ca01102a73a16U, 0xfc548632714e1e3U, 0xc995992c2e01f600U,
  0x973c2d20484202c7U, 0x8c3930ade990bb5U, 0x43b7121eee295524U, 0x9cdce3bbee3dc38cU,
  0xc65e352cedf745c6U, 0x9193613232321ddeU, 0x40392ffd020df2d6U, 0xdaeaf032b933e348U,
  0xd62ccf1fa6013213U, 0xbf32c6b7d344b9e6U, 0xf2c9330aa194a315U, 0xf0d6e71fe50cd2d6U,
  0xf1cb4dc5a6d7c20bU, 0x2915dcc916592214U, 0xb933952cee0e832dU, 0xd8fb531caef5d13fU,
  0xd23bfca89f26cc1fU, 0x3e9946b69c39b413U, 0xd33509e9cb86dbU, 0x31332ed2ea1692edU,
  0x4603bd03fec22fbfU, 0xb6befb0ce8d51d8cU, 0xec1bd240be372138U, 0xcb3eb5a1ecc7d7e0U,
  0x292b1f09c9cb3383U, 0xb8e21cccf4d40cc8U, 0xc142ba9fb10cac32U, 0x3017b1b102d9e713U,
  0xcba10711d312f6b7U, 0xb2ae30db12099a2cU, 0x97b1f50a23f8b52dU, 0xe29fea013632aab4U,
  0xb6d3062d82dca1deU, 0x3011a342a94bf622U, 0xf8d4e945c71bc029U, 0x3b1a332bedbabcb2U,
  0xce0db7d8f5d0cff7U, 0xc99e21b19e0caf0aU, 0xc0c3f43116c08cb5U, 0x97b3932394c4fc81U,
  0xcf48c152c9ad0fb9U, 0xcdfec615b8dd9fe8U, 0xe8a6b83cd806bf4cU, 0x203e1545a2a8c1aaU,
  0x23b7b3f82b952dfeU, 0x6cce906ed418cabU, 0x132efc25e53ba2b9U, 0x43391354cf0eb724U,
  0xacda0947e13c202dU, 0xee3dd3e2f8eced1aU, 0x20034ef0ed93af7U, 0xbfc9beec1700e7acU,
  0xd023dce8013dfc13U, 0x4443cd28e532fa13U, 0x1b654303293ff91fU, 0x3dc10fb1e2af7bfU,
  0x360bfe0ae5392ccdU, 0x100be6cbf519222cU, 0xcf059d8f6fb1bbfU, 0x10b0d69b1fffc4e7U,
  0xefffd6e3e2f0d0ecU, 0xf634ee18a3090721U, 0xed7282eec2fd1f5U, 0xcc2af2b131321aebU,
  0xfafadf00db10b5e8U, 0x152304cbd3d94914U, 0xe2e3f8eff71d470eU, 0xe2e201a804ebd796U,
  0xcec40b1b43e6051eU, 0xdbfd25f51fb32506U, 0x2deb423014b217edU, 0x16db21ebf0ede72dU,
  0x29eed3f8e4420915U, 0xfd0ff810cec049a3U, 0xe81252e5e3c150e9U, 0xdc19cfdcfe51ee16U,
  0xb02008e7491a15ebU, 0x3f6082be408dde2U, 0xfc21f93aaebdef3dU, 0xe428f71e5007e2fdU,
  0x8ce1fce2729b923U, 0xf3cbd8cc43ba13c1U, 0xd5eefaf3f7fdd2f1U, 0x17d722b9fcd0ec1dU,
  0x2cdc62eda15bfd7U, 0x30b5e2a7e33c1a41U, 0xf3f6eae3e0db102bU, 0x28cee30919d3e528U,
  0xe5f4d7ca0fe6cb25U, 0xdd17e4c9effae813U, 0x2c12ea470306f13aU, 0xf8fcda280a09d4e6U,
  0x981bfdac236e7c0U, 0x90d0abf15a02306U, 0x1a0105e306f20dc8U, 0xf2fb1c243a190440U,
  0xe1d9f5d01b34dd18U, 0x1d1722c20acb23fcU, 0x37cee42f142baceeU, 0x2ec6d82be41eed01U,
  0xe2cdd2d01ad32adbU, 0x3f1f140bed0ef803U, 0x261734ef24d6ef40U, 0x23c9e1e40823f5f2U,
  0xcc32fe1d1b3a1d25U, 0xc909230b1b32091eU, 0x9f11628c8e72b08U, 0x1954f91648f6f4feU,
  0x1fc238fd22f1f8f5U, 0x1a211c3138391841U, 0x3cddcd2419302de6U, 0x13f21001fa350d34U,
  0x26d2042054f0a3d6U, 0x1b3ed7e615f000b6U, 0x41084bde0ddce047U, 0xede820f6caf0f1ccU,
  0xf602edebe540080bU, 0xfb1608a9cfb61309U, 0xfcf448ed08faf520U, 0x6e90ad114010b26U,
  0xaaa3e5202b38fab3U, 0xc0b4d5ee14d0f5d5U, 0xe9fa0f3f08011e20U, 0xff192ceea7e0352bU,
  0xead21411d4f015e4U, 0xb7bf11dbfc070a06U, 0xf2d2eedaf8eae3c8U, 0xcc1522efc7eb14faU,
  0xcff6b80040e1cd28U, 0x71d24e214e7dcdcU, 0xff1feec928c1c122U, 0x1df3c50c321a23dfU,
  0xf6fafefa4af2af1fU, 0x2ac11813fb0af42eU, 0xdccf12f5ca1eaa09U, 0xeddf518facc1c0eU,
  0x443e1dd62ddc271eU, 0xdb06e91f0a1ce420U, 0x14f8c717f1660ef5U, 0x8224a310905be10U,
  0x4b02f2c51ff7eb1eU, 0x11ddef110427d41eU, 0xce51eb0109151c1bU, 0x504c2c4b1be60c00U,
  0xa1bff1a30181219U, 0x3eef3f52f18181cU, 0xce34f70c1b0efd20U, 0x1e024bde05193419U,
  0x1dfc1fe23d1032e6U, 0xf6e2c1f7d8e8081cU, 0x152ed0f8f4fbd6f4U, 0x1318f604fefeba3aU,
  0xe6020906e3d15219U, 0xe6cd1f3bfeeee2f6U, 0xcb19c9e1b9e5f9ebU, 0xf2051c296ff11b20U,
  0x343425f9fcd70709U, 0xf6010533fe17b812U, 0xfd06d5cf0a43ebefU, 0xeef4ea02bcfd0801U,
  0x4432fdbf0f0601d2U, 0x9eb1d4424eae1ecU, 0x1d36d4f3c9120ffaU, 0x16f3fc3311b139d9U,
  0x16f2f44d40f71cf3U, 0x22e00b1b0729e2e9U, 0xda01e0dd351defe3U, 0xfc1cf903ae4d0823U,
  0x81939f2ed0b0cd4U, 0xe6e9ebfdf217da12U, 0x1c0515dd0932dcfcU, 0xff52e12fe0205eaU,
  0xfafd08211410f0ddU, 0xe6ee1703fc1afbe0U, 0xf233055c16f7f915U, 0x29001aebe6e4de38U,
  0xf90828f047f82a00U, 0xf9fb440ce12c12fcU, 0x736dbf6ea11ea21U, 0x2c2b2e192f080a03U,
  0x1f4bf4062bf30c14U, 0xe3ae21f5ff3bf3e8U, 0xfafecff527fc0625U, 0x1b1c0927030bceffU,
  0x287ff0d229d7e8ebU, 0x1fd73105fc69c2ecU, 0xdb93ededf93fc8ffU, 0x380b3a07efdf1516U,
  0x1008f307feebebfcU, 0xb0ed5e214e700U, 0xefe2f7d1fafde6f9U, 0x3a362dd0150febd9U,
  0x2e9f8141bc3eeefU, 0xd014d4f91007fb0aU, 0x1dffed01d9fd05d1U, 0xd2ebc0d2da03dbe2U,
  0x11bc0dee13044bebU, 0xce0ded15440617d3U, 0xdf34200b2701f402U, 0xfa2b0f0641fb2418U,
  0xfc120af61e0cf708U, 0xdcc2140a2149dcf4U, 0xf010c6f33303efd6U, 0x1630ef2ff417f22cU,
  0xbcfb330ff7c43a0eU, 0xd6fd0b113702e107U, 0xb21dc1d11b15f001U, 0xf195c361617071fU,
  0xf0fa41b52badfbd3U, 0xd8fdf3231e3eff20U, 0x121018f9fb0386c1U, 0xacaf6f4afd3f125U,
  0xec2d0f02fbe90998U, 0xf015242f0306d704U, 0xf3f15e2cdeb0e17U, 0x290dd3d6f6cfdb03U,
  0x9e81521eb21fdf7U, 0xe0d80ffb2d14f5c1U, 0xde20df0709f2ef2dU, 0xe50d0c0013f7f7f5U,
  0x29031aeeeae41eceU, 0x19182526040c22ccU, 0xa0ceef7d913ddeeU, 0x2c303811d8efe3faU,
  0xcaccd03adb56f025U, 0x683a181be7ca0cf1U, 0x4b3818f429ea1100U, 0xa7bdeb32f3485ae5U,
  0xbad8092fe43e31e6U, 0x5702e506d7d63224U, 0x39400d0ddecf1c26U, 0xcfd522e1051742f1U,
  0xfa35d20ed7f0fbe4U, 0x5431e4d1e4164550U, 0x4da5f1e180342b6U, 0x22f4f4fbfa0cccfdU,
  0x1e0bee23cefb13ebU, 0x2d22da0024f011f0U, 0x3509f0ebfaef1aaeU, 0xc6b9fde7cf0e0df3U,
  0x2d9e1102fe459613U, 0x4311edf7b5184ce5U, 0x8060ff0c7cc16b2U, 0xd59baefb4d42100bU,
  0x21afc129ff00d8d6U, 0xfefdd4e32fb622ecU, 0x3ab1574221a656c1U, 0x10b0f1a3a459c5e8U,
  0xc7e1fc4aaa0e1027U, 0x1f1a17d2c4cb4497U, 0xdecf0209d7ae450fU, 0xc329d0d037f71a11U,
  0xa5ca21de6c1d08ebU, 0xfa1336c421f0e937U, 0x90910c0e9171c48U, 0x2205f8f4464520e3U,
  0xf6f1d70b25fc17c2U, 0xffd3ef072fe4f519U, 0xddd405da4ff0ff05U, 0xe11701112410363fU,
  0x34ddf31a03d814daU, 0xbd080493fd3a2000U, 0xa3f0eddf10e09e2U, 0x7d4d3a057b712e5U,
  0xde8f01036dfb2ddU, 0xe1f3d9160a972f35U, 0x1cdaec19c1a40411U, 0x7e4171240cb1e08U,
  0x1081bcfc0310a728U, 0x275d1aa9e1ad5045U, 0x3111152443f2bbf0U, 0xe82afe0ff7333e0cU,
  0xf5e0f7d805dfde3cU, 0xfc4130271ade0500U, 0xe1d8503106f8d42eU, 0xc9a6f4d449e922d7U,
  0x17e6f8ec22fef921U, 0xefe2f25060421faU, 0x6ad2b481efe2d08U, 0xc7cb02052318d0efU,
  0x11df374bd83feddcU, 0x1b3a34013924ecfeU, 0x3eb544e3f2d2d929U, 0xfc11f8041b130e23U,
  0x36e5dae24409d4e6U, 0x4804f7b423e55109U, 0x4fae43f4d90117ebU, 0xbe01b62ef4405aU,
  0xe3a7f91552f6cc3bU, 0x400590d0d41c2adeU, 0x143144f62dbc2a3aU, 0xf295c7b7004fcaeaU,
  0xecc5c8fee15acacdU, 0xe81c0f8bc1ed0abeU, 0xfbc947dfc41c0523U, 0xceccbbeb06103de0U,
  0xf4a7a5ea22040600U, 0xfb1ccdbcfd8757d3U, 0x36f6f10f4dd4410aU, 0x20c4ddd5c3eb50d2U,
  0xdfc7b7f304c72b0cU, 0xe4c4ddb9e9f8d7d3U, 0xffcfc2c92cfd24beU, 0xf6ebf91b2d0e31ebU,
  0x1be4b0f1d6ead70eU, 0xd5c91f02f2ec0e2bU, 0xf204db0127fac825U, 0xa021ef50db7e9fcU,
  0x31d8c2f228fac305U, 0x2acb33ad290df452U, 0xdae6f02a5622e7fbU, 0x31d0dbb33f1235d7U,
  0x3160a26d6181f3bU, 0xf80100fb15e2d4d0U, 0x250729ffdd2fdaf9U, 0x3afc1e572ce1ca2eU,
  0x238fdef3ede71f08U, 0xfddd1be93fd0d0d4U, 0x207f092518fc3c21U, 0xb65012d13ecf701U,
  0xc0b0f325c0defe8U, 0xf7e5e2e60fccd224U, 0xd958eacb01f4053cU, 0x2fc1d04d826ef25U,
  0x210cf01018d60d32U, 0xde1cf112c2da0007U, 0x603100404ce06d1U, 0x31e24d4d6ffe2c4U,
  0xfde0f5d606cc4009U, 0xd5e4d5000c1a2a0aU, 0x2401cb23f8140bffU, 0x8f1331627f21ce1U,
  0xe42107281cd90a3dU, 0x22cede1e19eebb13U, 0x17e2ba12ff4228d9U, 0xc1c2bdf93c6f3d5U,
  0xaea05c5e3dfe7d0U, 0xd40a19f03617fa30U, 0xc4f501bdcc25ef1eU, 0x142d17e0f1f10208U,
  0xdb2bfe1d10193813U, 0x1ad4dde50410dffeU, 0x103e835312fd1e4U, 0xddeaf9f0f510bff5U,
  0x26360d20e7fcf429U, 0xeda101405e5e3dcU, 0x62313d9f229ee31U, 0x1ee228e4e2f4e701U,
  0xde00431140e1be4U, 0x3134ffd8041c322bU, 0x16f3e116f80cdbeaU, 0x1d2ad12e32e4002fU,
  0xbe005f70e0504dbU, 0xd8c03b1dfb19053fU, 0xc821cad02634e730U, 0x11f31207d5eed7f1U,
  0x2543eb021ef02fe6U, 0xfce928332e32e6d1U, 0x31e60617e331cd12U, 0x1ee835e6e81ad036U,
  0xe64d15120ff8fde6U, 0xd9c719260d09d2dcU, 0xc7a6152edc23d519U, 0xf4e432ebea053afaU,
  0x3a0ad90220fedeceU, 0x16fe15f9ff18e921U, 0xfaecfe0e214afcfbU, 0x212f230d1c033aeaU,
  0xebf40dd521e928fbU, 0x31dfaf221dd51203U, 0x3245efd8fcfff325U, 0x3beec060c30c9eaU,
  0xf42648230a3c3725U, 0x18e3d5061ec0dfc5U, 0x35062bf83125241eU, 0xe303ef42271ae52bU,
  0xdd46f3ffc92b38dfU, 0xe8f417432707c9d5U, 0xe5dcc3024b2634d1U, 0x1641ea4a08033df9U,
  0xc8231bfc3503e610U, 0x2d2514292a30d32dU, 0xf732d0f933d1fb2dU, 0x2418e62b400f062eU,
  0x933d7051eae2d50U, 0xe51bf7f3fe03e621U, 0xf8f6e0200516c2d0U, 0xd1f4def0cfe7ff2bU,
  0x2edd1deef1f6e5c8U, 0xfcf4e824d4231216U, 0x2721df16b4011318U, 0x1328040ce49ad223U,
  0x2dde1334db021869U, 0xe51bdbe80ee12cdeU, 0x1b0ce608f6262c34U, 0xedfa1605fd010adfU,
  0xe6f70231cedaef26U, 0xf200ddefea05e6f7U, 0xe7d3e8253814ef01U, 0xe1d4103d1c331a05U,
  0x55400000f3aU, 0x5b200000a00U, 0x7610000066fU, 0xe1f00000764U,
  0x89400000761U, 0x46d0000054bU, 0x95400000a0eU, 0x3c700000351U,
  0x137800000db8U, 0xb2a00000959U, 0xbf3ffffecc6U, 0x15c000000b47U,
  0xab36e63d000007acU, 0xe4d6e8d632e7bce0U, 0xe2461e2bbd943c53U, 0xb61be82d81U,
  0x236U,
};


ai_handle g_soh_model_weights_table[1 + 2] = {
  AI_HANDLE_PTR(AI_MAGIC_MARKER),
  AI_HANDLE_PTR(s_soh_model_weights_array_u64),
  AI_HANDLE_PTR(AI_MAGIC_MARKER),
};

